unsigned char model_tflite[] = {
  0x1c, 0x00, 0x00, 0x00, 0x54, 0x46, 0x4c, 0x33, 0x14, 0x00, 0x20, 0x00,
  0x1c, 0x00, 0x18, 0x00, 0x14, 0x00, 0x10, 0x00, 0x0c, 0x00, 0x00, 0x00,
  0x08, 0x00, 0x04, 0x00, 0x14, 0x00, 0x00, 0x00, 0x1c, 0x00, 0x00, 0x00,
  0x8c, 0x00, 0x00, 0x00, 0xe4, 0x00, 0x00, 0x00, 0xb8, 0x69, 0x00, 0x00,
  0xc8, 0x69, 0x00, 0x00, 0x20, 0x7a, 0x00, 0x00, 0x03, 0x00, 0x00, 0x00,
  0x01, 0x00, 0x00, 0x00, 0x04, 0x00, 0x00, 0x00, 0x62, 0x93, 0xff, 0xff,
  0x0c, 0x00, 0x00, 0x00, 0x1c, 0x00, 0x00, 0x00, 0x3c, 0x00, 0x00, 0x00,
  0x0f, 0x00, 0x00, 0x00, 0x73, 0x65, 0x72, 0x76, 0x69, 0x6e, 0x67, 0x5f,
  0x64, 0x65, 0x66, 0x61, 0x75, 0x6c, 0x74, 0x00, 0x01, 0x00, 0x00, 0x00,
  0x04, 0x00, 0x00, 0x00, 0x90, 0xff, 0xff, 0xff, 0x1d, 0x00, 0x00, 0x00,
  0x04, 0x00, 0x00, 0x00, 0x08, 0x00, 0x00, 0x00, 0x6f, 0x75, 0x74, 0x70,
  0x75, 0x74, 0x5f, 0x30, 0x00, 0x00, 0x00, 0x00, 0x01, 0x00, 0x00, 0x00,
  0x04, 0x00, 0x00, 0x00, 0x06, 0x96, 0xff, 0xff, 0x04, 0x00, 0x00, 0x00,
  0x0c, 0x00, 0x00, 0x00, 0x6b, 0x65, 0x72, 0x61, 0x73, 0x5f, 0x74, 0x65,
  0x6e, 0x73, 0x6f, 0x72, 0x00, 0x00, 0x00, 0x00, 0x02, 0x00, 0x00, 0x00,
  0x34, 0x00, 0x00, 0x00, 0x04, 0x00, 0x00, 0x00, 0xdc, 0xff, 0xff, 0xff,
  0x20, 0x00, 0x00, 0x00, 0x04, 0x00, 0x00, 0x00, 0x13, 0x00, 0x00, 0x00,
  0x43, 0x4f, 0x4e, 0x56, 0x45, 0x52, 0x53, 0x49, 0x4f, 0x4e, 0x5f, 0x4d,
  0x45, 0x54, 0x41, 0x44, 0x41, 0x54, 0x41, 0x00, 0x08, 0x00, 0x0c, 0x00,
  0x08, 0x00, 0x04, 0x00, 0x08, 0x00, 0x00, 0x00, 0x1f, 0x00, 0x00, 0x00,
  0x04, 0x00, 0x00, 0x00, 0x13, 0x00, 0x00, 0x00, 0x6d, 0x69, 0x6e, 0x5f,
  0x72, 0x75, 0x6e, 0x74, 0x69, 0x6d, 0x65, 0x5f, 0x76, 0x65, 0x72, 0x73,
  0x69, 0x6f, 0x6e, 0x00, 0x21, 0x00, 0x00, 0x00, 0xd0, 0x68, 0x00, 0x00,
  0xc8, 0x68, 0x00, 0x00, 0x78, 0x68, 0x00, 0x00, 0x48, 0x68, 0x00, 0x00,
  0x2c, 0x68, 0x00, 0x00, 0x10, 0x68, 0x00, 0x00, 0xf4, 0x67, 0x00, 0x00,
  0xe4, 0x5f, 0x00, 0x00, 0x54, 0x5e, 0x00, 0x00, 0xc4, 0x5d, 0x00, 0x00,
  0xb4, 0x01, 0x00, 0x00, 0x64, 0x01, 0x00, 0x00, 0x4c, 0x01, 0x00, 0x00,
  0x38, 0x01, 0x00, 0x00, 0x20, 0x01, 0x00, 0x00, 0x0c, 0x01, 0x00, 0x00,
  0x04, 0x01, 0x00, 0x00, 0xfc, 0x00, 0x00, 0x00, 0xf4, 0x00, 0x00, 0x00,
  0xec, 0x00, 0x00, 0x00, 0xe4, 0x00, 0x00, 0x00, 0xdc, 0x00, 0x00, 0x00,
  0xd4, 0x00, 0x00, 0x00, 0xcc, 0x00, 0x00, 0x00, 0xc4, 0x00, 0x00, 0x00,
  0xbc, 0x00, 0x00, 0x00, 0xb4, 0x00, 0x00, 0x00, 0xac, 0x00, 0x00, 0x00,
  0xa4, 0x00, 0x00, 0x00, 0x9c, 0x00, 0x00, 0x00, 0x94, 0x00, 0x00, 0x00,
  0x74, 0x00, 0x00, 0x00, 0x04, 0x00, 0x00, 0x00, 0x06, 0x97, 0xff, 0xff,
  0x04, 0x00, 0x00, 0x00, 0x60, 0x00, 0x00, 0x00, 0x10, 0x00, 0x00, 0x00,
  0x00, 0x00, 0x00, 0x00, 0x08, 0x00, 0x0e, 0x00, 0x08, 0x00, 0x04, 0x00,
  0x08, 0x00, 0x00, 0x00, 0x10, 0x00, 0x00, 0x00, 0x24, 0x00, 0x00, 0x00,
  0x00, 0x00, 0x06, 0x00, 0x08, 0x00, 0x04, 0x00, 0x06, 0x00, 0x00, 0x00,
  0x04, 0x00, 0x00, 0x00, 0x00, 0x00, 0x00, 0x00, 0x0c, 0x00, 0x18, 0x00,
  0x14, 0x00, 0x10, 0x00, 0x0c, 0x00, 0x04, 0x00, 0x0c, 0x00, 0x00, 0x00,
  0x81, 0xeb, 0x00, 0x2f, 0xfb, 0x8b, 0xaf, 0x68, 0x02, 0x00, 0x00, 0x00,
  0x02, 0x00, 0x00, 0x00, 0x04, 0x00, 0x00, 0x00, 0x06, 0x00, 0x00, 0x00,
  0x32, 0x2e, 0x31, 0x37, 0x2e, 0x31, 0x00, 0x00, 0x72, 0x97, 0xff, 0xff,
  0x04, 0x00, 0x00, 0x00, 0x10, 0x00, 0x00, 0x00, 0x31, 0x2e, 0x31, 0x30,
  0x2e, 0x30, 0x00, 0x00, 0x00, 0x00, 0x00, 0x00, 0x00, 0x00, 0x00, 0x00,
  0x04, 0x88, 0xff, 0xff, 0x08, 0x88, 0xff, 0xff, 0x0c, 0x88, 0xff, 0xff,
  0x10, 0x88, 0xff, 0xff, 0x14, 0x88, 0xff, 0xff, 0x18, 0x88, 0xff, 0xff,
  0x1c, 0x88, 0xff, 0xff, 0x20, 0x88, 0xff, 0xff, 0x24, 0x88, 0xff, 0xff,
  0x28, 0x88, 0xff, 0xff, 0x2c, 0x88, 0xff, 0xff, 0x30, 0x88, 0xff, 0xff,
  0x34, 0x88, 0xff, 0xff, 0x38, 0x88, 0xff, 0xff, 0x3c, 0x88, 0xff, 0xff,
  0xca, 0x97, 0xff, 0xff, 0x04, 0x00, 0x00, 0x00, 0x04, 0x00, 0x00, 0x00,
  0xfd, 0xff, 0xff, 0xff, 0xda, 0x97, 0xff, 0xff, 0x04, 0x00, 0x00, 0x00,
  0x08, 0x00, 0x00, 0x00, 0xff, 0xff, 0xff, 0xff, 0x70, 0x01, 0x00, 0x00,
  0xee, 0x97, 0xff, 0xff, 0x04, 0x00, 0x00, 0x00, 0x04, 0x00, 0x00, 0x00,
  0x01, 0x00, 0x00, 0x00, 0xfe, 0x97, 0xff, 0xff, 0x04, 0x00, 0x00, 0x00,
  0x08, 0x00, 0x00, 0x00, 0x6b, 0x1a, 0xfa, 0xbe, 0x69, 0x1a, 0xfa, 0x3e,
  0x12, 0x98, 0xff, 0xff, 0x04, 0x00, 0x00, 0x00, 0x40, 0x00, 0x00, 0x00,
  0x29, 0x87, 0x64, 0xbd, 0xc2, 0x1b, 0x11, 0xbd, 0x6e, 0xa0, 0x98, 0xbc,
  0xea, 0xf9, 0xfb, 0xbc, 0xe4, 0x02, 0xcb, 0xbc, 0x37, 0x00, 0x70, 0xbc,
  0xd1, 0x14, 0x4c, 0xbd, 0x0a, 0x17, 0x27, 0xbd, 0x30, 0x0f, 0x5d, 0xbc,
  0xb6, 0x34, 0xcb, 0xbc, 0xcc, 0x26, 0x45, 0xbd, 0x26, 0x18, 0xb9, 0x3e,
  0xc9, 0x04, 0x96, 0xbc, 0xec, 0xf2, 0xbf, 0xbc, 0x06, 0xa4, 0x1b, 0x3d,
  0xae, 0x24, 0x21, 0xbd, 0x5e, 0x98, 0xff, 0xff, 0x04, 0x00, 0x00, 0x00,
  0x00, 0x5c, 0x00, 0x00, 0x63, 0x6c, 0x8d, 0xbc, 0x91, 0x41, 0xc6, 0x3d,
  0x90, 0x09, 0xab, 0x3c, 0x09, 0x84, 0x54, 0x3d, 0xca, 0xa1, 0x6f, 0xbd,
  0xcd, 0x9e, 0x98, 0xbd, 0x76, 0xd9, 0x0d, 0xbd, 0xfb, 0xa2, 0xc4, 0x3d,
  0xd5, 0xfc, 0xd5, 0xbd, 0xe2, 0xd1, 0x9a, 0x3d, 0x44, 0xd2, 0x88, 0x3d,
  0x01, 0x88, 0xcc, 0x3d, 0x25, 0x76, 0xd8, 0xbd, 0xc4, 0x9e, 0x18, 0x3d,
  0xcd, 0x7f, 0x02, 0xbd, 0x5e, 0x44, 0x59, 0xbd, 0x74, 0x51, 0x99, 0x3d,
  0x3e, 0xac, 0xed, 0xbd, 0xcc, 0x23, 0x0a, 0xbd, 0xb3, 0x9f, 0x90, 0xbc,
  0xa0, 0x2f, 0xa0, 0x3d, 0x04, 0xa4, 0x73, 0x3b, 0x3a, 0xaf, 0x9c, 0xbd,
  0x2e, 0xc2, 0xa0, 0x3d, 0x60, 0xe6, 0x9c, 0xbd, 0x9a, 0x22, 0xac, 0xbd,
  0xfa, 0x27, 0xb7, 0xbd, 0x8c, 0xab, 0x21, 0xbc, 0xc0, 0x09, 0xe3, 0xbc,
  0x12, 0xe5, 0x54, 0xbd, 0x6f, 0xad, 0xbe, 0xbb, 0x58, 0x23, 0x8c, 0x3d,
  0x9b, 0x14, 0xc5, 0x3d, 0x17, 0xca, 0xa1, 0x3d, 0xdb, 0x6c, 0xc5, 0xbd,
  0x06, 0xc3, 0xa0, 0x3d, 0x9e, 0x87, 0x5e, 0xbd, 0xc7, 0x57, 0x92, 0x3d,
  0x28, 0xfe, 0x13, 0x3c, 0x45, 0x20, 0x75, 0xbd, 0x69, 0xed, 0x6d, 0x3d,
  0x41, 0x36, 0x0d, 0xbd, 0x31, 0x91, 0x10, 0xbe, 0xfa, 0xdf, 0x2c, 0x3d,
  0x57, 0xf5, 0x1e, 0x3d, 0xd1, 0x15, 0x6e, 0xbd, 0x80, 0x3c, 0x94, 0xbd,
  0x67, 0xda, 0xa4, 0xbd, 0xbe, 0x09, 0x39, 0xbd, 0xcc, 0x25, 0x91, 0x3a,
  0x11, 0x0a, 0xa6, 0x3d, 0x9d, 0xcf, 0xbf, 0xbd, 0x6b, 0x50, 0x17, 0xbe,
  0x25, 0x48, 0x45, 0xbd, 0xaf, 0xce, 0x62, 0x3d, 0x50, 0x06, 0x19, 0x3d,
  0x1f, 0x35, 0xa3, 0xbd, 0x03, 0xcc, 0x79, 0x3d, 0xd9, 0xbe, 0xde, 0xbd,
  0x03, 0xec, 0x0c, 0xbd, 0x88, 0x9f, 0x50, 0x3d, 0x25, 0x82, 0x28, 0x3d,
  0x96, 0xe0, 0x06, 0xbe, 0xe8, 0x6e, 0x90, 0x3d, 0xb3, 0xc8, 0x12, 0xbe,
  0x8e, 0x4e, 0xce, 0xbd, 0xcd, 0x7b, 0xaa, 0x3c, 0x71, 0xe7, 0x23, 0xbd,
  0xad, 0xfb, 0xa2, 0xbd, 0xb5, 0x74, 0xc5, 0x3c, 0x6d, 0x9f, 0x3e, 0x3c,
  0xf9, 0x0f, 0x3a, 0x3d, 0xfc, 0x12, 0xf6, 0xbd, 0x0d, 0x74, 0xac, 0xbd,
  0x9d, 0xce, 0x80, 0xbd, 0x0c, 0xcd, 0xde, 0xbd, 0x40, 0x0c, 0x96, 0x3a,
  0x38, 0xcd, 0x97, 0xbd, 0xfd, 0x09, 0xea, 0xbd, 0x9a, 0x0f, 0xd2, 0x3b,
  0xe8, 0x17, 0x1f, 0x3b, 0x89, 0x12, 0x4d, 0x3d, 0x76, 0x49, 0x13, 0xbe,
  0xb1, 0x65, 0x67, 0xbc, 0x8a, 0x61, 0x88, 0x3d, 0x2c, 0xa7, 0x9b, 0xbd,
  0xe1, 0xd2, 0x25, 0xbd, 0xce, 0x71, 0x0c, 0x3d, 0xb7, 0x4d, 0x40, 0x3d,
  0x5b, 0x65, 0x0f, 0xbd, 0x76, 0x53, 0x9c, 0xbd, 0x00, 0x96, 0x4e, 0xbd,
  0xdd, 0x6b, 0x9e, 0x3c, 0xeb, 0x3d, 0x66, 0xbd, 0xe9, 0xbf, 0x52, 0xbd,
  0x1d, 0x0f, 0xb1, 0x3d, 0xbc, 0x94, 0x9b, 0xbd, 0x78, 0x8d, 0x1b, 0x3c,
  0xee, 0xe0, 0xa2, 0xbc, 0xcf, 0xd7, 0x50, 0x3d, 0x94, 0x5e, 0xd7, 0xbc,
  0x07, 0x74, 0xd4, 0x3b, 0xe8, 0x39, 0xd7, 0xbd, 0x8d, 0xa7, 0x7e, 0x3d,
  0x7a, 0xb1, 0x86, 0x3c, 0x49, 0x39, 0x7d, 0xbd, 0xf9, 0xff, 0x5e, 0x3d,
  0x6e, 0xc4, 0x1c, 0xbe, 0x79, 0x7f, 0xa4, 0x3d, 0xa9, 0xb7, 0x03, 0xbe,
  0x8e, 0xa0, 0x3d, 0x3b, 0xcd, 0x6f, 0x28, 0xbd, 0x81, 0xca, 0x0c, 0xbd,
  0xde, 0xde, 0xec, 0xbc, 0x87, 0x93, 0x42, 0x3d, 0x92, 0xed, 0x7e, 0xbd,
  0x51, 0x77, 0x18, 0xbc, 0x6a, 0xb9, 0xd7, 0xbc, 0x67, 0x2d, 0x9a, 0x3d,
  0xed, 0x10, 0xfa, 0xbd, 0xbd, 0x92, 0x3b, 0x3d, 0x5e, 0x3c, 0x89, 0xbd,
  0xba, 0x93, 0xd1, 0x3c, 0x1f, 0x05, 0xc6, 0x3c, 0xd7, 0xe8, 0xae, 0xbb,
  0x6b, 0xd8, 0x17, 0xbe, 0xb3, 0x49, 0xb5, 0x3c, 0xf0, 0xf0, 0x8a, 0x3d,
  0x5a, 0xd9, 0xaf, 0x3d, 0x8c, 0x05, 0xa8, 0xbc, 0x6e, 0x91, 0x66, 0xbd,
  0x1f, 0x90, 0xdb, 0xbc, 0x6f, 0x40, 0x04, 0xbc, 0xf5, 0x81, 0xa4, 0xbd,
  0xb5, 0xb2, 0xb2, 0xbd, 0x18, 0xe6, 0x09, 0xbe, 0xab, 0xef, 0xe9, 0xbc,
  0x2d, 0xfb, 0xbf, 0xbc, 0xec, 0x87, 0x83, 0xbd, 0x41, 0x1f, 0xe0, 0xbd,
  0xc4, 0x67, 0x28, 0xbe, 0x83, 0x1b, 0xb0, 0x3d, 0xdc, 0x1d, 0x9b, 0x3d,
  0xda, 0xe8, 0xb4, 0x3d, 0x27, 0x3b, 0x99, 0xbd, 0x63, 0x29, 0xc8, 0x3d,
  0x44, 0x35, 0x5e, 0xbb, 0x4e, 0xb2, 0xfc, 0x3b, 0x0e, 0xf9, 0xa7, 0x3b,
  0x58, 0xed, 0x2e, 0x3d, 0x84, 0x6f, 0xfb, 0xbd, 0x4f, 0x48, 0x8d, 0x39,
  0x62, 0x5f, 0x9b, 0x3d, 0x7d, 0x1a, 0x7c, 0xbd, 0x9b, 0x2a, 0xbe, 0x3d,
  0x20, 0xa3, 0x94, 0x3c, 0xfa, 0xcf, 0x95, 0xbc, 0xc2, 0xb8, 0xaf, 0xbd,
  0x90, 0x13, 0x8b, 0x3d, 0x4d, 0x8b, 0xff, 0xba, 0x5b, 0x5e, 0xf3, 0xbd,
  0xbb, 0x38, 0xa1, 0xbd, 0xd1, 0x8d, 0x9e, 0x3c, 0x7c, 0x34, 0xfc, 0xbd,
  0x26, 0xcb, 0x3d, 0xbd, 0xd6, 0xe8, 0x8f, 0x3d, 0xdd, 0x73, 0x15, 0x3c,
  0x36, 0x01, 0x33, 0x3d, 0x82, 0x69, 0xda, 0xbd, 0x59, 0x32, 0x81, 0x3b,
  0xe1, 0xa6, 0x87, 0x3d, 0xa7, 0x7c, 0x9b, 0x3d, 0x27, 0x16, 0xd0, 0x3c,
  0x40, 0x71, 0x1c, 0xbe, 0x76, 0xd8, 0xa7, 0xbc, 0x2a, 0xcc, 0xe5, 0x3c,
  0x57, 0x45, 0x46, 0xbd, 0xa5, 0xfb, 0x9e, 0xbd, 0x0d, 0xf2, 0xe6, 0xbd,
  0xe3, 0x49, 0x3c, 0x3d, 0x24, 0x56, 0x26, 0xbc, 0x47, 0x8b, 0x86, 0x3d,
  0x35, 0x8c, 0x22, 0x3c, 0x38, 0x59, 0x4e, 0x3c, 0xc7, 0x01, 0x87, 0x3d,
  0x74, 0x4d, 0xe0, 0xbd, 0x22, 0x31, 0x20, 0xbe, 0x05, 0xf1, 0x90, 0xbd,
  0xae, 0x92, 0xc6, 0xbc, 0x3d, 0x5c, 0x1f, 0xbe, 0x11, 0x96, 0xc1, 0xbc,
  0xe9, 0x84, 0x14, 0xbe, 0xf0, 0x1b, 0x0d, 0xbe, 0x8b, 0x54, 0x13, 0x3d,
  0xec, 0x49, 0x58, 0x3d, 0x97, 0x1a, 0x8c, 0x3d, 0xb1, 0xe0, 0x84, 0x3d,
  0x64, 0x09, 0x52, 0x3d, 0x81, 0x5d, 0xb8, 0xbd, 0x62, 0x4c, 0xdb, 0xbd,
  0x8b, 0x2e, 0x43, 0x3c, 0x80, 0xab, 0x22, 0x3d, 0x73, 0xb2, 0x7a, 0x3d,
  0x98, 0x66, 0x8d, 0xbc, 0xbf, 0x9a, 0x80, 0xbd, 0x10, 0xfa, 0xae, 0xbd,
  0x68, 0x91, 0x03, 0xbe, 0xd5, 0x61, 0xdc, 0x3c, 0x18, 0x28, 0x66, 0xbd,
  0x86, 0xa4, 0xa6, 0xbd, 0x47, 0x2b, 0x5b, 0x3c, 0x24, 0x85, 0x86, 0xbd,
  0xea, 0x9a, 0x13, 0xbc, 0xf9, 0x8b, 0x1f, 0xbd, 0x43, 0xea, 0xcc, 0xbd,
  0x11, 0xdd, 0x10, 0xbe, 0x03, 0x53, 0x9c, 0x3d, 0x8e, 0x8c, 0x42, 0xbb,
  0x67, 0x22, 0x01, 0xbd, 0xdc, 0x8c, 0x2e, 0xbc, 0xa1, 0xc8, 0x4a, 0x3d,
  0x6b, 0x3f, 0xbd, 0xbc, 0x81, 0x11, 0xc3, 0xbd, 0x9a, 0x30, 0x19, 0xbc,
  0xc1, 0xe9, 0x8c, 0xbd, 0xca, 0x7b, 0xec, 0xbd, 0x26, 0x4c, 0xae, 0x3d,
  0x33, 0x94, 0x76, 0xbd, 0xc0, 0x62, 0xce, 0xbd, 0x86, 0x0e, 0x32, 0xbd,
  0xab, 0xfe, 0xcc, 0x3d, 0x8c, 0xe0, 0xc3, 0xbd, 0xfe, 0x75, 0xf4, 0xbd,
  0xd9, 0xe3, 0xb2, 0xbd, 0xe8, 0x39, 0x77, 0x3b, 0x76, 0x21, 0xa6, 0xbd,
  0x61, 0xc8, 0x31, 0xbd, 0x52, 0xdb, 0x8c, 0xbd, 0x3b, 0x50, 0x43, 0x3d,
  0x0e, 0x2f, 0xda, 0xbd, 0x84, 0xdc, 0x93, 0xbc, 0xe9, 0x40, 0xb8, 0xbd,
  0x19, 0xc5, 0x25, 0xbe, 0xeb, 0x90, 0x9b, 0xbd, 0x5a, 0xd4, 0x56, 0xbc,
  0xc8, 0xb1, 0xd5, 0xbd, 0x81, 0x3c, 0xf5, 0xbc, 0x83, 0xef, 0x60, 0x3d,
  0x21, 0x82, 0xdb, 0xbd, 0x37, 0x69, 0xee, 0xbc, 0x8c, 0xf2, 0xc0, 0x3c,
  0x04, 0xad, 0x46, 0xbd, 0xfc, 0x02, 0x64, 0x3d, 0x7a, 0xe7, 0x7c, 0x3c,
  0x47, 0x7a, 0xf5, 0xbd, 0xcf, 0xaa, 0xab, 0xbd, 0xdb, 0x3a, 0xcd, 0x3c,
  0x4b, 0xa0, 0x18, 0xbe, 0x05, 0xbe, 0x4b, 0x3d, 0x1e, 0x84, 0x10, 0xbd,
  0x4c, 0x16, 0xb8, 0x3c, 0xba, 0xf1, 0xf1, 0xbc, 0xc6, 0x58, 0xf8, 0x3a,
  0x8b, 0x2f, 0xcd, 0x3c, 0x54, 0xd8, 0xb3, 0xbd, 0x42, 0x41, 0x10, 0xbd,
  0x32, 0xf0, 0x63, 0x3d, 0xa5, 0xd2, 0x91, 0x3d, 0x13, 0xbc, 0x18, 0x3c,
  0xec, 0x68, 0xef, 0xbc, 0xb4, 0x29, 0x00, 0xbe, 0x1a, 0xa4, 0xf9, 0xbd,
  0x46, 0x92, 0x1d, 0xbe, 0x68, 0xb6, 0xaf, 0x3c, 0x9e, 0x84, 0x38, 0x3d,
  0x54, 0xb9, 0x0e, 0xbe, 0x22, 0xbc, 0xaa, 0xbc, 0xdd, 0xc0, 0x8b, 0x3d,
  0x7a, 0x61, 0x0f, 0xbc, 0x25, 0x7b, 0x8a, 0x3d, 0x5d, 0xaa, 0x75, 0x3d,
  0x20, 0x7d, 0xb5, 0xbd, 0xec, 0x10, 0x97, 0x3c, 0xfc, 0xf3, 0x8b, 0xbb,
  0xc2, 0x56, 0x96, 0x3d, 0xdc, 0x48, 0x15, 0xbe, 0x66, 0x85, 0x6a, 0x3b,
  0xa3, 0xe8, 0x11, 0x3d, 0x32, 0x17, 0xd1, 0x3c, 0x51, 0x13, 0x92, 0x3b,
  0xea, 0x52, 0x40, 0xbc, 0x60, 0xc3, 0x4b, 0xbd, 0xd9, 0x02, 0x9d, 0x3c,
  0x1f, 0x14, 0xf0, 0xbd, 0xd1, 0x74, 0x7d, 0x3c, 0xe6, 0x7b, 0x92, 0x3d,
  0x22, 0x57, 0x4d, 0x3d, 0x3c, 0xc5, 0x82, 0xbd, 0x79, 0xd8, 0x0e, 0xbe,
  0xc5, 0x56, 0x8d, 0xbd, 0x62, 0xd1, 0xf8, 0xbd, 0x23, 0x1f, 0x25, 0xbe,
  0x2c, 0x33, 0x18, 0xbe, 0x3c, 0x01, 0xfc, 0xbd, 0x6e, 0x51, 0xfa, 0xbd,
  0xfd, 0x1f, 0xba, 0x3d, 0xc8, 0xe5, 0x2b, 0xbe, 0x52, 0xe5, 0x00, 0xbd,
  0xd6, 0x29, 0x02, 0xbc, 0x29, 0x74, 0xc5, 0xbd, 0x35, 0x89, 0x70, 0xba,
  0x25, 0xb8, 0x1b, 0xbe, 0xd7, 0xa4, 0xd3, 0x3b, 0x57, 0xdb, 0xa5, 0xbd,
  0xf4, 0xa9, 0x97, 0x3d, 0x12, 0x59, 0xa2, 0x3d, 0x79, 0x63, 0xfc, 0xbb,
  0x98, 0x77, 0xaa, 0x3c, 0x46, 0xd2, 0x86, 0xbc, 0xa5, 0xfe, 0x3a, 0x3d,
  0xf6, 0xb2, 0x52, 0x39, 0xdf, 0x9e, 0x30, 0x3c, 0x3c, 0xad, 0x78, 0xbd,
  0x1c, 0x88, 0x27, 0xbe, 0xbc, 0xb7, 0x36, 0xbd, 0xfe, 0x2e, 0x16, 0xbe,
  0xd5, 0x56, 0x0f, 0xbe, 0x92, 0xec, 0x09, 0xbd, 0x41, 0x81, 0xa4, 0xbd,
  0x73, 0x8c, 0x2f, 0x3d, 0x35, 0x21, 0x21, 0x3c, 0xb8, 0x72, 0xd3, 0x3c,
  0x21, 0x85, 0x22, 0xbe, 0x36, 0x12, 0x2f, 0xbe, 0x61, 0x87, 0x82, 0xbd,
  0xa1, 0x31, 0x79, 0xbd, 0xbe, 0x50, 0x62, 0xbd, 0x68, 0xae, 0xe9, 0xbc,
  0xa0, 0x04, 0x39, 0x3d, 0x64, 0xb5, 0x35, 0x3d, 0x12, 0xe3, 0x8e, 0xbd,
  0x8e, 0x4b, 0xf4, 0xbd, 0x56, 0xe3, 0x08, 0xbe, 0x5b, 0x02, 0x71, 0xbd,
  0xfa, 0x02, 0x96, 0x3d, 0x07, 0x24, 0x84, 0xbd, 0x0c, 0xd7, 0xe4, 0x3b,
  0xad, 0x17, 0xee, 0xbd, 0x4a, 0xc3, 0xc5, 0x3b, 0x5b, 0x2c, 0x88, 0x3d,
  0x3f, 0xc1, 0x8f, 0x3d, 0x4f, 0x57, 0x92, 0xbd, 0xe0, 0xa4, 0xc5, 0xbd,
  0xfa, 0x67, 0x73, 0xbd, 0x47, 0xf0, 0x84, 0x3c, 0xfd, 0x6c, 0xb9, 0xbd,
  0x5d, 0xa7, 0x1f, 0xbe, 0x89, 0x05, 0x2e, 0xbc, 0x08, 0x31, 0x88, 0x3d,
  0x63, 0xfa, 0x09, 0xbe, 0xb6, 0x94, 0xdb, 0xbd, 0x5f, 0x94, 0xad, 0x3d,
  0x28, 0x3e, 0x1d, 0xbd, 0x6f, 0x01, 0x3b, 0xba, 0x46, 0x5f, 0xe0, 0xbd,
  0x20, 0x5a, 0xb9, 0xbc, 0xc0, 0x27, 0x73, 0x3c, 0x53, 0xef, 0x2d, 0xbc,
  0x7b, 0xbc, 0x50, 0x3d, 0x78, 0x2f, 0x99, 0xbc, 0xc1, 0xb4, 0x81, 0xbd,
  0x3d, 0xff, 0xa7, 0x3d, 0xed, 0x9f, 0xc4, 0xbd, 0x98, 0xd6, 0x78, 0x3c,
  0x8e, 0x1d, 0x5f, 0xbd, 0x4f, 0xfe, 0x89, 0xbc, 0xb0, 0xc4, 0xe6, 0xbc,
  0x4c, 0x7e, 0xa1, 0x3b, 0x20, 0xe9, 0xff, 0x3d, 0xa6, 0x6e, 0x1a, 0xbe,
  0x6b, 0x2f, 0x9e, 0xbd, 0x80, 0xdf, 0x4d, 0xbd, 0xc3, 0xa8, 0x9e, 0x3c,
  0x74, 0x71, 0x00, 0xbe, 0x35, 0x4a, 0x53, 0xbd, 0xf0, 0x9f, 0x4d, 0xbd,
  0x14, 0xc6, 0x86, 0xbd, 0x32, 0x68, 0xdd, 0xbd, 0x6b, 0x23, 0x75, 0xbd,
  0xb3, 0x49, 0xb3, 0xbd, 0x2a, 0x34, 0xc2, 0x3d, 0x93, 0x4c, 0xc5, 0xbd,
  0xab, 0x43, 0x26, 0xbc, 0x83, 0xc1, 0xc5, 0xbd, 0x08, 0xbd, 0x36, 0x3d,
  0x84, 0x08, 0x7a, 0xbc, 0xd6, 0xcc, 0x0e, 0xbe, 0x22, 0xc6, 0x8a, 0xbd,
  0x43, 0x53, 0x9e, 0xbd, 0x93, 0x7a, 0x2d, 0xbc, 0xd5, 0x8c, 0x2e, 0xbd,
  0xe9, 0xc4, 0x92, 0xbc, 0xa8, 0x57, 0xbf, 0xbc, 0x3e, 0xd9, 0x41, 0xbd,
  0x1b, 0x78, 0xa2, 0x3d, 0xc6, 0xfd, 0x21, 0xbd, 0xb6, 0x9e, 0x0c, 0xbe,
  0xdb, 0x83, 0x84, 0x3d, 0x44, 0x12, 0x48, 0xbd, 0x74, 0x5a, 0xba, 0xbd,
  0x6d, 0xc7, 0xda, 0x3d, 0x57, 0xd0, 0x0c, 0xbe, 0x76, 0x59, 0x71, 0xbd,
  0xe4, 0x45, 0x7d, 0xbd, 0x62, 0x41, 0x0e, 0x3b, 0x8b, 0x79, 0x06, 0xbe,
  0x1c, 0xa1, 0xea, 0xbd, 0xd8, 0x93, 0x6a, 0x3d, 0xb3, 0x3a, 0xdc, 0xbd,
  0xff, 0x98, 0x7d, 0xbd, 0x68, 0x1f, 0x86, 0x3b, 0x8d, 0xdb, 0x5d, 0xbd,
  0xe1, 0xe5, 0x32, 0xbc, 0xa2, 0x0d, 0x99, 0xbc, 0xd8, 0xa6, 0x33, 0xbd,
  0x41, 0x4d, 0x1a, 0xbe, 0x50, 0xaa, 0xde, 0xbc, 0x7f, 0xcc, 0x6e, 0xbc,
  0x44, 0xde, 0x1a, 0xbe, 0x9f, 0x92, 0x10, 0xbe, 0x87, 0x95, 0x05, 0xbe,
  0x32, 0xc0, 0xdc, 0x3b, 0x8f, 0x12, 0xe6, 0xbd, 0x00, 0x34, 0x5c, 0xbd,
  0xc1, 0xa0, 0xca, 0xbd, 0xe1, 0xda, 0xdc, 0xbd, 0x8f, 0xc9, 0xdf, 0xbd,
  0x67, 0x7b, 0xd9, 0x3b, 0xe4, 0x5f, 0x91, 0xbd, 0xa7, 0xa8, 0x48, 0xbd,
  0x71, 0x9f, 0xa5, 0x3d, 0xda, 0x34, 0x73, 0xbd, 0x6e, 0x5a, 0xfa, 0xbd,
  0x7e, 0xcf, 0x11, 0xbe, 0x46, 0xab, 0xc7, 0xbd, 0xaf, 0xb5, 0x48, 0xbd,
  0xf9, 0xf7, 0x5c, 0xbc, 0x37, 0x34, 0x0c, 0x3c, 0xe9, 0x20, 0x6f, 0xbd,
  0x4f, 0xb0, 0x82, 0x3c, 0x88, 0xa1, 0xfa, 0xbd, 0x8b, 0x01, 0xd0, 0x3c,
  0x85, 0x15, 0xca, 0x3c, 0xb3, 0x51, 0x4e, 0xbd, 0x04, 0x63, 0xd5, 0x3d,
  0x6d, 0xf9, 0xc7, 0x3d, 0xe5, 0xbd, 0xa3, 0x3d, 0xb3, 0x93, 0x0b, 0xbe,
  0x88, 0x57, 0x94, 0xbd, 0x64, 0x1b, 0xd1, 0xbd, 0x32, 0x8b, 0xb0, 0xbd,
  0x07, 0xf7, 0xc3, 0x3d, 0x6b, 0xe3, 0x47, 0x3d, 0xe4, 0xc4, 0x90, 0x3d,
  0x83, 0x4f, 0xbc, 0xbc, 0xaa, 0x7d, 0xf6, 0xbd, 0xf1, 0x65, 0x0b, 0xbe,
  0x26, 0x34, 0x72, 0x3d, 0xc6, 0xff, 0x14, 0xbe, 0x04, 0x51, 0x73, 0xbc,
  0x1f, 0xd1, 0xbf, 0x3d, 0x71, 0x3c, 0xb9, 0x3d, 0x29, 0x3f, 0xc8, 0x3d,
  0x85, 0xad, 0xa0, 0xbd, 0xbe, 0xca, 0xef, 0xbd, 0xd7, 0xc6, 0xf6, 0x3c,
  0xd9, 0x91, 0x85, 0xbd, 0x58, 0x36, 0x0f, 0xbd, 0x90, 0xdb, 0xf3, 0x3c,
  0xad, 0xca, 0x94, 0xbd, 0x28, 0x4e, 0x92, 0xbd, 0xc4, 0xe8, 0xda, 0xbd,
  0x62, 0xcd, 0xee, 0xbd, 0x1f, 0xdb, 0xfa, 0xbc, 0xf8, 0x4f, 0x36, 0xbd,
  0x10, 0x19, 0xab, 0x3a, 0x90, 0xa4, 0xde, 0xbc, 0xf1, 0xc0, 0xc4, 0xbd,
  0xeb, 0x16, 0xe5, 0x3d, 0x9f, 0x1c, 0x01, 0xbd, 0x30, 0x72, 0x04, 0xbd,
  0x5f, 0x0c, 0xa1, 0x3c, 0x88, 0x2b, 0xa4, 0x3d, 0x05, 0x27, 0xec, 0x3d,
  0xf5, 0xb5, 0x05, 0x3d, 0xef, 0xcc, 0x1d, 0xbd, 0x7e, 0x75, 0x04, 0xbe,
  0x97, 0x4d, 0x78, 0xbc, 0x34, 0x86, 0x24, 0x3d, 0x57, 0x84, 0x92, 0xbd,
  0x9d, 0xe9, 0x3c, 0xbd, 0x83, 0x9d, 0x55, 0x3b, 0xe4, 0xf8, 0xe8, 0xbd,
  0x43, 0x79, 0xbc, 0xbd, 0x10, 0x5b, 0xb9, 0xbd, 0xdc, 0xd3, 0xf5, 0xbd,
  0xdc, 0xb7, 0xbb, 0xbd, 0x1a, 0x66, 0xe7, 0xbd, 0x06, 0x65, 0x05, 0xbe,
  0xdc, 0x50, 0xd6, 0xbd, 0x36, 0xce, 0x97, 0xbd, 0x7b, 0x0d, 0x42, 0xbc,
  0x7f, 0xa7, 0x6e, 0xbc, 0x39, 0xd7, 0x77, 0xbc, 0x5c, 0xb9, 0x00, 0x3d,
  0x6f, 0x64, 0x97, 0x3d, 0x6b, 0xf5, 0x38, 0xbc, 0x12, 0x26, 0x9f, 0x3c,
  0xd8, 0x74, 0x92, 0x3d, 0x76, 0xd0, 0x63, 0x3d, 0x2a, 0xca, 0x5c, 0x3d,
  0x4a, 0x66, 0x08, 0xbe, 0xc0, 0x64, 0x93, 0xbc, 0x21, 0xbc, 0x5f, 0xbb,
  0xf3, 0x39, 0xad, 0xbb, 0xbd, 0xa6, 0x2a, 0xbd, 0x4f, 0xb5, 0x99, 0x3d,
  0x27, 0x53, 0x7a, 0x3d, 0xec, 0x3b, 0xf4, 0x3c, 0x00, 0xd1, 0xcc, 0xbb,
  0x3e, 0x36, 0x0b, 0xbe, 0x7e, 0x82, 0x5f, 0xbd, 0x3e, 0xcb, 0xa6, 0x3d,
  0x11, 0x81, 0x64, 0x3d, 0xf5, 0xe9, 0x6c, 0x3d, 0x24, 0x82, 0x9e, 0xbd,
  0x90, 0x43, 0x5f, 0x3d, 0xde, 0xe8, 0x71, 0x3d, 0x46, 0x84, 0x9e, 0x3d,
  0xfa, 0x43, 0xaa, 0x3d, 0x99, 0xfb, 0xa5, 0xbd, 0xa2, 0x19, 0xef, 0xbd,
  0xd8, 0xc2, 0x43, 0x3d, 0x7c, 0xfe, 0x0b, 0xbc, 0x24, 0xb2, 0xe6, 0xbd,
  0x11, 0x15, 0x17, 0xbe, 0xd3, 0x29, 0x9a, 0xbc, 0xef, 0xda, 0x73, 0x3d,
  0x81, 0x58, 0xc8, 0xbc, 0x2c, 0x81, 0x9b, 0x3c, 0x8c, 0x2c, 0xb1, 0x3d,
  0xa7, 0x49, 0xfc, 0xbd, 0xa7, 0x4d, 0x94, 0x3b, 0x89, 0x87, 0xa1, 0x3d,
  0x90, 0x65, 0xd0, 0x3d, 0xc9, 0xf6, 0x36, 0x3d, 0xa7, 0xcd, 0x34, 0x3c,
  0x3c, 0xa7, 0xda, 0x3d, 0xb5, 0xc7, 0x99, 0x3d, 0x4e, 0x55, 0xd3, 0xbc,
  0x86, 0x4a, 0x30, 0xbd, 0xfc, 0x10, 0xfa, 0x3d, 0xd7, 0x02, 0x58, 0xbc,
  0x82, 0xc8, 0x66, 0xbc, 0x30, 0xd9, 0x00, 0xbe, 0xa9, 0x26, 0x85, 0xbc,
  0x10, 0xcf, 0x12, 0x3d, 0x41, 0x68, 0xba, 0x3c, 0xe9, 0xc6, 0x1e, 0xbd,
  0xf4, 0x9f, 0x1e, 0xbe, 0xa0, 0x6d, 0xf7, 0xbd, 0x59, 0x5a, 0x1b, 0x3c,
  0xc4, 0xf7, 0x82, 0xbd, 0x05, 0xda, 0x99, 0x3d, 0x2d, 0x72, 0xa6, 0xbd,
  0x14, 0xd4, 0xf1, 0xbd, 0xb1, 0x00, 0xa9, 0x3d, 0xc8, 0xe3, 0x9d, 0x3d,
  0x05, 0xf0, 0xe6, 0xbd, 0x87, 0xac, 0x21, 0xbe, 0x38, 0x8c, 0x55, 0xbd,
  0xdf, 0x68, 0xf9, 0xbc, 0x30, 0xa5, 0xa0, 0xbc, 0x35, 0x72, 0xfa, 0xbd,
  0x8e, 0x65, 0xdb, 0xbc, 0x17, 0xeb, 0x11, 0x3d, 0xd0, 0xd4, 0xbc, 0x3c,
  0xde, 0xc9, 0x93, 0xbd, 0x38, 0x0d, 0x95, 0x3d, 0x91, 0x75, 0x02, 0xbe,
  0xc5, 0x1e, 0xe2, 0xbd, 0xbe, 0x61, 0x8f, 0xbc, 0x34, 0xc1, 0x4a, 0xbd,
  0xb7, 0xcf, 0x0c, 0xbe, 0x6a, 0xd1, 0xa8, 0x3d, 0xb3, 0xd5, 0xa1, 0xbd,
  0xac, 0x79, 0x37, 0x3d, 0x6d, 0x94, 0x92, 0xbd, 0x94, 0x66, 0x8a, 0xbd,
  0x5c, 0x85, 0xc5, 0x3d, 0x9e, 0xfc, 0x8d, 0x3d, 0x45, 0x61, 0x8f, 0x3d,
  0xd1, 0xdd, 0x00, 0x3d, 0x6e, 0x9f, 0x73, 0xbd, 0xb1, 0x0f, 0xb5, 0xbd,
  0x64, 0x2e, 0x5f, 0x3d, 0xe9, 0xdc, 0xba, 0xbd, 0x2c, 0xfc, 0x8b, 0xbd,
  0xf1, 0xb6, 0xc5, 0xbc, 0x4a, 0x2f, 0x7d, 0x3d, 0x69, 0xc5, 0xee, 0xbd,
  0x0b, 0xa8, 0x76, 0xbd, 0x3e, 0xe3, 0xd4, 0xbd, 0x23, 0x3f, 0x69, 0xbb,
  0x94, 0xf9, 0xe3, 0x3d, 0x01, 0xc3, 0xb3, 0xbd, 0x07, 0x91, 0xf7, 0x3c,
  0x59, 0x4b, 0x80, 0xbd, 0xf8, 0x2a, 0x8e, 0xbd, 0x86, 0x8f, 0x34, 0x3d,
  0x80, 0x13, 0x81, 0x3c, 0x5e, 0xf1, 0xb6, 0x3d, 0xbd, 0x76, 0xb8, 0x3b,
  0x3d, 0x3d, 0x2e, 0x3d, 0x06, 0xd2, 0x26, 0xbd, 0xae, 0x7d, 0x22, 0x3d,
  0xed, 0x80, 0x90, 0xbc, 0xd4, 0xfe, 0x33, 0x3d, 0xc0, 0xeb, 0xd7, 0xbc,
  0x26, 0x1b, 0xd4, 0xbc, 0x38, 0x93, 0x21, 0xbd, 0xf1, 0x11, 0xc2, 0xbd,
  0xb5, 0xfe, 0xe1, 0xbd, 0xa6, 0xff, 0x4f, 0xbd, 0x00, 0xce, 0x64, 0xbd,
  0x56, 0xc8, 0xb5, 0xbd, 0xe9, 0xa6, 0x86, 0x3d, 0xfc, 0x9f, 0x83, 0xbb,
  0x90, 0x95, 0xa0, 0xbc, 0xb2, 0xda, 0x88, 0xbc, 0x8d, 0x3d, 0x76, 0xbd,
  0x3c, 0x88, 0x94, 0xbd, 0xe2, 0x80, 0x96, 0xbd, 0xc8, 0x21, 0xc8, 0xbc,
  0x82, 0x91, 0x93, 0xbc, 0x74, 0x5d, 0x81, 0xbc, 0x40, 0x97, 0xf8, 0x3c,
  0x16, 0x1a, 0xea, 0x3c, 0xc0, 0xe4, 0x58, 0x3d, 0xc8, 0x90, 0x59, 0x3c,
  0xb0, 0x00, 0xa7, 0x3c, 0xc3, 0x31, 0x27, 0x3d, 0x3c, 0xea, 0x50, 0xbd,
  0x8b, 0x3b, 0x51, 0xbb, 0x15, 0x0c, 0x03, 0xbd, 0x38, 0xf0, 0x5b, 0x3c,
  0xa4, 0xd4, 0x14, 0xbe, 0x5a, 0xcc, 0x5b, 0x3c, 0x80, 0x70, 0x4a, 0xbd,
  0x84, 0xe2, 0x83, 0xbd, 0x52, 0x72, 0xdd, 0xbc, 0xdc, 0x40, 0x03, 0xbe,
  0xe0, 0x64, 0x1d, 0xbc, 0x9e, 0x26, 0xfe, 0xbc, 0x27, 0x45, 0x73, 0xbd,
  0x85, 0x96, 0x0b, 0x3d, 0x64, 0xa1, 0xf7, 0xbd, 0x1e, 0xfe, 0xd1, 0x3d,
  0xdb, 0xfa, 0x3b, 0x3d, 0xeb, 0xe9, 0xab, 0x3d, 0x0d, 0xa5, 0x86, 0xbd,
  0xe6, 0x96, 0x80, 0x3d, 0x84, 0x29, 0xa0, 0x3d, 0x47, 0xe7, 0x96, 0x3c,
  0x9b, 0x5a, 0x63, 0xbd, 0x10, 0xce, 0xcc, 0x3c, 0x24, 0xf2, 0xdb, 0x3d,
  0x69, 0x3a, 0xd4, 0xbd, 0x68, 0x9e, 0x3f, 0x3d, 0x7b, 0x3d, 0xee, 0xbd,
  0x16, 0x74, 0x7b, 0x3d, 0x61, 0xb3, 0xf3, 0xbc, 0xc0, 0x5f, 0x61, 0x3c,
  0x45, 0x58, 0x7c, 0x3c, 0x3d, 0xd0, 0x21, 0xbe, 0xe2, 0xc8, 0xc3, 0xbd,
  0xe7, 0x37, 0x5f, 0xbd, 0x14, 0x96, 0xa7, 0xbd, 0x3f, 0xab, 0x92, 0xbd,
  0xb9, 0xa4, 0xf7, 0xbd, 0x37, 0xaf, 0xc9, 0xbd, 0x85, 0x10, 0x71, 0x3d,
  0x40, 0xb0, 0x7c, 0xbd, 0x7c, 0xfe, 0xbc, 0x3d, 0x48, 0x96, 0xce, 0xbd,
  0x9a, 0x15, 0x4c, 0x3d, 0x96, 0xec, 0x5d, 0x3d, 0x2e, 0x7c, 0xb3, 0xbd,
  0xe0, 0xe0, 0xa6, 0x3c, 0x0c, 0x2f, 0xc8, 0x3d, 0x9d, 0x70, 0x84, 0xbd,
  0x14, 0xb6, 0x80, 0xbc, 0x71, 0x53, 0xbf, 0x3d, 0x7d, 0x0d, 0x97, 0xbd,
  0x1a, 0xe7, 0xb7, 0xbd, 0xa4, 0xfe, 0x2c, 0x3d, 0x7e, 0x90, 0x1a, 0xbe,
  0xba, 0xcc, 0xdd, 0x3d, 0x50, 0x7d, 0xea, 0xbd, 0x18, 0xd4, 0xdc, 0xbd,
  0xf0, 0xc0, 0x9c, 0x3c, 0xeb, 0x73, 0x3a, 0x3d, 0x4f, 0x58, 0xc0, 0xbd,
  0x72, 0x8b, 0xec, 0xbd, 0xe8, 0x7a, 0xa6, 0xbd, 0xe8, 0x6a, 0xf4, 0x3d,
  0xb5, 0x36, 0x1a, 0xbe, 0x7c, 0xa8, 0xba, 0x3d, 0xf8, 0x0c, 0xfb, 0xbc,
  0x78, 0xd5, 0xd0, 0x3d, 0x38, 0x1d, 0xff, 0xbd, 0xc6, 0x8d, 0x15, 0x3d,
  0x0f, 0x53, 0x94, 0x3d, 0xa3, 0xa0, 0xa1, 0x3c, 0x20, 0x23, 0x07, 0xbe,
  0x8b, 0x01, 0x97, 0x3d, 0x80, 0x2b, 0xf2, 0xbd, 0x44, 0xa8, 0x1f, 0x3d,
  0x52, 0x49, 0x02, 0xbe, 0xbf, 0x6f, 0x53, 0xbd, 0x7f, 0x18, 0xcc, 0x3d,
  0xe0, 0x0c, 0xd9, 0x3d, 0x76, 0x78, 0xb4, 0x3d, 0x28, 0x41, 0x11, 0x3d,
  0x32, 0x59, 0x51, 0x3c, 0xf8, 0xce, 0xa7, 0x3d, 0xd3, 0xc9, 0x8d, 0x3c,
  0x1e, 0x53, 0xdb, 0x3d, 0xfb, 0x02, 0x04, 0xbd, 0xbc, 0xe0, 0x57, 0x3d,
  0x29, 0xb5, 0x5c, 0x3d, 0xf2, 0xa6, 0xe1, 0xbc, 0xa6, 0xfd, 0x6f, 0x3c,
  0x92, 0x5d, 0x74, 0x3d, 0xc8, 0x07, 0x80, 0xbd, 0xb0, 0x83, 0xc6, 0xbd,
  0x01, 0x6c, 0x92, 0x3d, 0x3a, 0xd1, 0xd0, 0xbc, 0x85, 0x08, 0x0a, 0xbc,
  0x74, 0x77, 0x19, 0xbd, 0x3c, 0x17, 0xdc, 0x3d, 0xd3, 0xd5, 0xd5, 0xbd,
  0xc1, 0xba, 0xd2, 0xbd, 0xf5, 0x5a, 0x62, 0x3d, 0xd6, 0x71, 0x58, 0x3d,
  0x75, 0x3b, 0xf1, 0x3c, 0x60, 0x7b, 0x1b, 0xbe, 0x7a, 0x3a, 0x7a, 0x3d,
  0xbf, 0xe0, 0x8d, 0xbd, 0xe8, 0xce, 0xe9, 0xbd, 0x3e, 0x73, 0xe7, 0xbd,
  0xe1, 0x9f, 0xea, 0x3c, 0x29, 0xb9, 0x47, 0xbb, 0x94, 0x65, 0xa7, 0xbd,
  0x6f, 0x2e, 0xc7, 0xbd, 0x63, 0x82, 0x96, 0x3d, 0x9b, 0x4e, 0x11, 0xbe,
  0x68, 0xe7, 0x9c, 0xbc, 0x7a, 0x00, 0xdd, 0xbc, 0xc2, 0x24, 0x53, 0x3d,
  0xa6, 0x64, 0xae, 0x3d, 0x4f, 0xd1, 0xb1, 0xbc, 0x16, 0x13, 0x9d, 0xbd,
  0xe6, 0x3b, 0x1e, 0xbc, 0xaa, 0x98, 0x48, 0x3d, 0xae, 0xfe, 0x28, 0x3d,
  0x7d, 0x1c, 0xd6, 0xbd, 0x39, 0x82, 0x08, 0xbe, 0x57, 0x91, 0x0e, 0xbe,
  0x7f, 0xd8, 0x9c, 0xbd, 0x0e, 0x03, 0xd1, 0xbd, 0x00, 0xf4, 0x2b, 0x3d,
  0x39, 0xd9, 0xc2, 0x3d, 0x21, 0x22, 0x6a, 0x3d, 0x21, 0x76, 0xdb, 0xbd,
  0x3c, 0x61, 0x9c, 0xbd, 0x5b, 0x68, 0xd4, 0x3c, 0xee, 0x7d, 0xa2, 0xbd,
  0xcb, 0xba, 0xde, 0xbc, 0x2b, 0x49, 0xb8, 0xbd, 0x38, 0xcf, 0xd9, 0x3c,
  0x1f, 0x20, 0x07, 0xbe, 0xdf, 0x61, 0xf3, 0xbc, 0x21, 0xa2, 0x27, 0xbb,
  0x11, 0xde, 0xf7, 0x3d, 0x32, 0xa8, 0x9c, 0x3c, 0x59, 0xb0, 0xfc, 0x38,
  0x4b, 0x2c, 0xa7, 0xbd, 0x65, 0x89, 0xb5, 0xbd, 0x77, 0xa0, 0xbb, 0x3c,
  0x25, 0xb6, 0xf8, 0xbd, 0x7b, 0xef, 0xa1, 0xbd, 0x42, 0xc4, 0x81, 0xbb,
  0x85, 0xe4, 0x3f, 0x3d, 0xbc, 0x94, 0x5a, 0xbd, 0x1c, 0x36, 0x2e, 0xbc,
  0x58, 0xb1, 0x2d, 0x3c, 0x9d, 0x16, 0xd7, 0xbd, 0x79, 0x25, 0x54, 0xbd,
  0xd1, 0x26, 0xbb, 0xbc, 0x5c, 0xb4, 0x06, 0x3e, 0x47, 0x9f, 0xab, 0xbd,
  0xa6, 0xbf, 0xdc, 0xbd, 0xb0, 0x1d, 0x67, 0x3d, 0xd6, 0x31, 0xeb, 0xbd,
  0x12, 0x6c, 0x3c, 0x3c, 0xdf, 0x59, 0x3d, 0xbd, 0xcb, 0x8d, 0x1e, 0x3d,
  0xca, 0x75, 0x31, 0x3d, 0x5e, 0xbf, 0x10, 0xbe, 0x9a, 0x4e, 0x6d, 0xbd,
  0x05, 0x49, 0x97, 0x3c, 0x94, 0x1e, 0x46, 0x3d, 0xfb, 0xb7, 0xe3, 0xbd,
  0xe7, 0x6f, 0x49, 0x3d, 0xf1, 0x5e, 0x06, 0x3d, 0x2d, 0xf5, 0x70, 0x3d,
  0x20, 0x4d, 0xff, 0xbd, 0x6d, 0x13, 0xec, 0x3b, 0xdf, 0x5e, 0x9b, 0x3d,
  0x0e, 0x1b, 0x7e, 0xbd, 0x16, 0x83, 0xd4, 0x3c, 0x2e, 0xc5, 0x9f, 0x3d,
  0xfb, 0x21, 0xb8, 0x3d, 0x3a, 0x24, 0x24, 0xbd, 0x02, 0x0d, 0xad, 0xbd,
  0x72, 0xb2, 0x1d, 0xbe, 0xec, 0xcd, 0x8a, 0x3d, 0x61, 0xaa, 0xac, 0xbd,
  0x11, 0xbd, 0xb0, 0xbd, 0xa3, 0xc8, 0x8b, 0xbd, 0x16, 0xbd, 0x4d, 0xbc,
  0xcf, 0x30, 0xa3, 0xbd, 0x10, 0xb6, 0xcb, 0xbd, 0x2c, 0x73, 0xaa, 0xbd,
  0x22, 0x0f, 0xce, 0x3c, 0x86, 0xdd, 0xf3, 0xbc, 0x24, 0x16, 0x98, 0x3d,
  0x0c, 0x93, 0xa6, 0xbd, 0xfe, 0xed, 0xaa, 0x3d, 0xa6, 0xc5, 0x7b, 0x3d,
  0xfd, 0x49, 0xb5, 0x3d, 0x56, 0x10, 0xfa, 0xbc, 0x4c, 0xbd, 0xd6, 0xbd,
  0xde, 0x53, 0x98, 0x3d, 0xc2, 0xb2, 0xa5, 0x3c, 0xb7, 0x2a, 0x63, 0xbd,
  0x37, 0x4f, 0x68, 0xbc, 0xa0, 0xfc, 0x69, 0x3d, 0xd2, 0xf0, 0x99, 0xbd,
  0xba, 0x7b, 0x7b, 0x3d, 0xc7, 0xc9, 0x5b, 0x3d, 0x78, 0x93, 0x1a, 0x3d,
  0xcf, 0xc7, 0xfa, 0xbd, 0x34, 0x70, 0xcb, 0x3d, 0xb2, 0x89, 0x44, 0xbd,
  0xd7, 0x7d, 0xd2, 0xbb, 0xc0, 0x30, 0xb6, 0xbd, 0x8d, 0x21, 0x9b, 0x3d,
  0x37, 0x0b, 0x3e, 0xbd, 0x63, 0x99, 0x23, 0xbc, 0x8f, 0xba, 0xf7, 0xbd,
  0xd5, 0x40, 0xbc, 0x3d, 0x5c, 0x4b, 0xad, 0xbd, 0x34, 0xbc, 0x8f, 0x3d,
  0x08, 0x3e, 0x5c, 0x3d, 0x48, 0xcb, 0x77, 0xbd, 0xb3, 0x84, 0x05, 0xbe,
  0x86, 0x40, 0x1f, 0x3c, 0x9c, 0x35, 0x12, 0xbe, 0xd6, 0x8c, 0x91, 0xbb,
  0x68, 0x70, 0x44, 0x3d, 0xf0, 0xaa, 0x30, 0x3d, 0xd3, 0x33, 0xc5, 0x3c,
  0x1f, 0x57, 0xbb, 0x3c, 0x51, 0xf1, 0x58, 0xbd, 0x03, 0xd3, 0xd2, 0x3d,
  0xb7, 0x07, 0xc3, 0x3d, 0xe5, 0xe2, 0xa6, 0xbb, 0x08, 0x43, 0x9b, 0xbc,
  0xe7, 0x83, 0xc6, 0xbc, 0xa9, 0xff, 0xae, 0x3d, 0x4d, 0x42, 0xed, 0xbc,
  0x6e, 0xde, 0x3f, 0x3d, 0xb4, 0x9f, 0x8f, 0xbd, 0x48, 0x80, 0x9e, 0x3c,
  0xed, 0x05, 0xc4, 0x3c, 0x07, 0xb0, 0x8c, 0x3c, 0x41, 0x72, 0x86, 0x3d,
  0x3d, 0xcb, 0x58, 0xbd, 0x3e, 0x58, 0x22, 0x3e, 0x7e, 0x9f, 0x69, 0xbc,
  0xdf, 0xbe, 0x0c, 0x3e, 0xde, 0x32, 0x05, 0x3e, 0x23, 0xa5, 0x29, 0x3c,
  0x52, 0x4d, 0x82, 0x3d, 0x7e, 0x97, 0xb5, 0xbc, 0xac, 0xb0, 0xe3, 0xbb,
  0xc9, 0xa7, 0x4c, 0xbd, 0xc3, 0x96, 0x01, 0x3e, 0xa2, 0x4e, 0x7e, 0x3d,
  0xd6, 0xa4, 0x37, 0x3d, 0xf4, 0x26, 0xa5, 0x3d, 0x56, 0xd2, 0x24, 0x3e,
  0x97, 0x35, 0x14, 0xbe, 0x39, 0x42, 0xee, 0x3d, 0x27, 0xc8, 0x51, 0x3d,
  0xca, 0x2a, 0xfb, 0xbd, 0x1e, 0x15, 0xa1, 0x3d, 0x3f, 0x0f, 0xa0, 0xbb,
  0x47, 0x1a, 0x0d, 0x3e, 0x64, 0x9b, 0xef, 0xbd, 0x42, 0xf3, 0x98, 0x3d,
  0xd7, 0xf1, 0xb5, 0xbc, 0xca, 0x1b, 0xe0, 0xbd, 0xb9, 0x65, 0x3d, 0x3d,
  0x54, 0xcc, 0x86, 0x3d, 0x1b, 0x48, 0xf3, 0xbc, 0x48, 0xb3, 0x7d, 0xbd,
  0x21, 0xc8, 0x00, 0xbe, 0xf4, 0x8e, 0x86, 0xbd, 0xa1, 0x9a, 0x00, 0xbe,
  0x4f, 0x44, 0x86, 0xbd, 0x4e, 0xb9, 0xa6, 0x3c, 0xc9, 0x32, 0xa4, 0x3d,
  0x51, 0x33, 0x5e, 0x3d, 0xe9, 0x64, 0x07, 0xbd, 0x6a, 0x8d, 0x15, 0xbe,
  0x51, 0xf5, 0xe5, 0xbd, 0xc3, 0x61, 0xbe, 0x3c, 0xc5, 0xa9, 0xe2, 0x3c,
  0x86, 0x4c, 0x7f, 0xbd, 0x87, 0xfa, 0xa6, 0xbc, 0x23, 0xda, 0x92, 0xbd,
  0x8f, 0x12, 0x2f, 0xbd, 0xf2, 0xa2, 0x44, 0xbd, 0xfd, 0x3f, 0x31, 0xbc,
  0x71, 0x60, 0x07, 0xbd, 0x8d, 0x7c, 0x82, 0xbd, 0x54, 0xb5, 0xda, 0xbd,
  0xa7, 0x25, 0xa3, 0xbd, 0x99, 0x7a, 0x72, 0xbd, 0x24, 0xfd, 0xed, 0x3d,
  0x3c, 0x83, 0xa4, 0x3d, 0xa2, 0x04, 0x14, 0xbe, 0xbf, 0x92, 0x8d, 0xbd,
  0x08, 0xd8, 0x1f, 0x3d, 0x4a, 0xcb, 0x6b, 0xbc, 0x4b, 0x4e, 0x93, 0xbd,
  0x6b, 0x7a, 0xc3, 0xbd, 0x4f, 0x71, 0x86, 0x3d, 0xab, 0x77, 0x90, 0xba,
  0x09, 0x95, 0x12, 0x3d, 0xe9, 0xb8, 0x11, 0xbd, 0x5b, 0xb4, 0xc5, 0x3c,
  0x0f, 0x38, 0x55, 0xbc, 0x75, 0x62, 0x77, 0x3d, 0x8a, 0x71, 0xf2, 0xbd,
  0x46, 0x0f, 0x65, 0xbd, 0x42, 0x56, 0xa3, 0x3a, 0xbe, 0xe5, 0xcf, 0x3d,
  0xdc, 0xe0, 0x18, 0xbd, 0xc9, 0x0d, 0x12, 0xbd, 0x1f, 0x56, 0xd7, 0xbd,
  0xc0, 0x8d, 0x03, 0xbe, 0x1e, 0xf9, 0xae, 0x3d, 0x3a, 0x24, 0xb1, 0x3b,
  0xc1, 0xa6, 0x2c, 0x3d, 0x40, 0x67, 0x72, 0xbc, 0xdd, 0xde, 0x14, 0xbc,
  0xca, 0xaf, 0xb8, 0x3c, 0x22, 0x0c, 0xae, 0x3c, 0x2e, 0x25, 0xd1, 0xbd,
  0x4b, 0xb5, 0x62, 0xbd, 0x29, 0x0a, 0xaa, 0xbd, 0x07, 0xa9, 0x93, 0x3b,
  0x03, 0x9e, 0x6e, 0x3d, 0xec, 0x9a, 0xa1, 0xbc, 0xd3, 0xd2, 0xbd, 0xbd,
  0x39, 0xfb, 0x5c, 0xbd, 0x2d, 0xdb, 0xa8, 0x3d, 0xe8, 0x46, 0xca, 0xba,
  0x95, 0xfd, 0x87, 0xbb, 0xdd, 0x52, 0x50, 0xbc, 0x6a, 0x35, 0xc3, 0x3c,
  0xb4, 0x14, 0x26, 0x3b, 0x2b, 0x9d, 0x8b, 0x3d, 0x88, 0x31, 0xce, 0xba,
  0x07, 0xc4, 0x1e, 0x3d, 0xaa, 0x24, 0x05, 0x3d, 0x0d, 0x14, 0xfa, 0x3c,
  0xc2, 0x7e, 0x9f, 0x3d, 0x8b, 0xfe, 0xd7, 0x3d, 0x12, 0xef, 0x0b, 0xbc,
  0x12, 0xca, 0x4f, 0x3d, 0x65, 0xc0, 0x65, 0x3c, 0x69, 0xd3, 0xb4, 0xbd,
  0x5c, 0xa0, 0x8c, 0xbd, 0x15, 0xd0, 0x06, 0xbe, 0x43, 0x2f, 0x3b, 0xbc,
  0x55, 0x8e, 0xb0, 0xbd, 0x85, 0xe9, 0x95, 0xbc, 0xe7, 0x07, 0xc0, 0xbd,
  0x17, 0x62, 0x2e, 0xbd, 0x53, 0x56, 0xab, 0xbd, 0x32, 0x73, 0x21, 0x3d,
  0x23, 0x97, 0xce, 0x3c, 0xa7, 0x0e, 0xe8, 0xbd, 0x24, 0x2c, 0x07, 0xbd,
  0xc9, 0xf5, 0x97, 0x3c, 0x2d, 0xbc, 0x0c, 0x3d, 0xb2, 0xdb, 0x03, 0xbe,
  0xdc, 0x18, 0x2b, 0x3d, 0x80, 0xfe, 0x0f, 0xbe, 0x7f, 0x4b, 0x14, 0xbe,
  0x4e, 0x5a, 0x9a, 0xbd, 0x70, 0x63, 0x26, 0x3d, 0xef, 0x01, 0xba, 0xbd,
  0xab, 0x7d, 0x91, 0xbc, 0xc8, 0x13, 0x67, 0x3c, 0xe2, 0x93, 0x99, 0x3d,
  0xb8, 0xec, 0xc1, 0xbc, 0x25, 0x9b, 0x06, 0xbd, 0xb1, 0xef, 0xd6, 0xbd,
  0x35, 0x14, 0xfe, 0xbd, 0xad, 0x9d, 0x16, 0xbe, 0x2f, 0xd2, 0xb3, 0xbd,
  0xb6, 0x3f, 0x49, 0x3d, 0x57, 0xe4, 0x43, 0x3d, 0xd1, 0x5a, 0xdb, 0xbd,
  0x66, 0x05, 0xa8, 0x3d, 0xcb, 0x9d, 0x7b, 0xbd, 0x43, 0x02, 0x0b, 0xbd,
  0xc0, 0x2b, 0x8a, 0x3d, 0xfa, 0x3d, 0x9f, 0xbd, 0xec, 0xfd, 0x8d, 0x3d,
  0x30, 0x10, 0xaf, 0x3b, 0x22, 0x84, 0xef, 0x3c, 0x83, 0x67, 0x32, 0xbd,
  0x2f, 0x45, 0x19, 0xbe, 0x88, 0xe8, 0xe9, 0xbd, 0x34, 0xc8, 0x73, 0xbc,
  0x2e, 0xb2, 0x4e, 0xbd, 0x35, 0x88, 0xd4, 0xbd, 0xa4, 0x6f, 0xa7, 0xbc,
  0x1b, 0x2d, 0x31, 0xbd, 0x60, 0xd5, 0xdf, 0x3d, 0xfb, 0x33, 0x08, 0xbe,
  0x9f, 0x96, 0x0a, 0xbd, 0xfd, 0x38, 0x52, 0x3c, 0xab, 0xb1, 0x6b, 0x3d,
  0x88, 0xac, 0xad, 0xbd, 0xb2, 0xe1, 0xaa, 0xbd, 0xa4, 0x15, 0xf9, 0xbb,
  0x29, 0xe2, 0x41, 0xbd, 0x60, 0x3f, 0xdc, 0x3c, 0x7a, 0x31, 0x80, 0x3c,
  0x0d, 0x9e, 0xb6, 0x3c, 0x9d, 0x07, 0xc9, 0x3c, 0x62, 0xb3, 0x33, 0x3d,
  0x84, 0x1f, 0xa1, 0x3d, 0x7f, 0x48, 0xf7, 0xbd, 0xc7, 0xaf, 0xc6, 0x3c,
  0x82, 0x69, 0xb8, 0x3d, 0xd5, 0x41, 0x8f, 0x3d, 0x8c, 0x2a, 0x7f, 0xbd,
  0x3f, 0x90, 0x3c, 0x3c, 0xec, 0xa8, 0x24, 0x3d, 0x10, 0x81, 0xea, 0xbd,
  0xca, 0x59, 0xfa, 0xbd, 0xba, 0xc7, 0x0d, 0xbe, 0x5c, 0xce, 0x87, 0xbd,
  0xf6, 0xac, 0x29, 0x3d, 0x36, 0x7a, 0xc6, 0x3c, 0xa3, 0x6f, 0x60, 0x3d,
  0x52, 0xa7, 0x38, 0xbd, 0xbb, 0xe8, 0xb2, 0xbd, 0x20, 0x8c, 0x62, 0x3c,
  0x47, 0xc4, 0x48, 0x3d, 0xca, 0xc1, 0xba, 0x3d, 0xa0, 0xd3, 0xf7, 0xbc,
  0xa4, 0x95, 0x23, 0xbd, 0x95, 0x03, 0x87, 0x3d, 0xec, 0x16, 0x4f, 0xbd,
  0x36, 0xcc, 0xc6, 0x3d, 0x67, 0x42, 0x7a, 0x3d, 0xe0, 0x57, 0x9c, 0x3c,
  0x31, 0x3a, 0xa3, 0xbd, 0x23, 0x8e, 0xba, 0x3b, 0xd9, 0xfe, 0xd4, 0xbd,
  0x93, 0xbc, 0x09, 0xbe, 0x47, 0xee, 0x69, 0x3d, 0x59, 0xe6, 0x27, 0xbb,
  0x68, 0x0e, 0x85, 0x3d, 0xe3, 0x75, 0x7c, 0x3d, 0x73, 0x61, 0x0f, 0x3d,
  0x71, 0x2b, 0x8d, 0x3c, 0x5d, 0xc2, 0xaa, 0xbd, 0x5a, 0xa1, 0xcc, 0xbd,
  0xd0, 0x58, 0xf3, 0xbc, 0x9c, 0xd0, 0x43, 0xbd, 0x8e, 0x2a, 0xac, 0x3b,
  0x83, 0x64, 0x8e, 0xbd, 0x29, 0x86, 0x6f, 0x3c, 0xc8, 0xe2, 0xd6, 0xbc,
  0x45, 0x01, 0x3d, 0x3d, 0x4c, 0x95, 0x73, 0xbd, 0x1e, 0x7e, 0xdb, 0xbc,
  0x7a, 0x30, 0x5c, 0x3d, 0x8f, 0xe3, 0x68, 0xbd, 0x28, 0x34, 0x95, 0xbd,
  0x11, 0xbd, 0xe0, 0x3d, 0xf3, 0xb4, 0x84, 0xbd, 0x96, 0x0e, 0x05, 0xbe,
  0x30, 0x12, 0xfc, 0xbb, 0xfa, 0x53, 0x84, 0x3d, 0x12, 0x10, 0xe8, 0xbd,
  0xbc, 0x80, 0x1b, 0x3d, 0x1a, 0x62, 0x19, 0xbc, 0x00, 0xb3, 0xa5, 0xbd,
  0x24, 0xca, 0x88, 0x3d, 0x64, 0x2c, 0xa9, 0x3c, 0x84, 0x58, 0xa3, 0xbd,
  0x48, 0x27, 0x1f, 0xbd, 0xe8, 0x87, 0x83, 0xbc, 0x9a, 0x72, 0x83, 0x3a,
  0x1e, 0x1e, 0x3c, 0x3d, 0x5c, 0x61, 0xdd, 0xbc, 0xea, 0xf8, 0x2b, 0x3d,
  0xe0, 0xcc, 0x7f, 0x3c, 0x5b, 0x85, 0x5d, 0x3d, 0x18, 0x69, 0xca, 0xbd,
  0x59, 0xea, 0x89, 0xbd, 0xf6, 0x0b, 0x3e, 0xbd, 0x9d, 0x25, 0x47, 0x3d,
  0x0e, 0xb8, 0x10, 0xbe, 0xc9, 0x26, 0x27, 0xbd, 0x7f, 0xdb, 0xad, 0xbc,
  0x62, 0xa3, 0xaf, 0xbc, 0x1c, 0x23, 0x8c, 0x3d, 0xfb, 0x85, 0x77, 0x3d,
  0xa1, 0xcd, 0x6c, 0x3d, 0x6c, 0x5b, 0xe1, 0xbd, 0x3d, 0x05, 0x6d, 0xbd,
  0xcd, 0x65, 0x9f, 0xbd, 0xec, 0x69, 0xc1, 0xbd, 0x36, 0x82, 0x3a, 0x3d,
  0xdb, 0x9d, 0x34, 0x3d, 0xdd, 0x0f, 0x92, 0xbd, 0x85, 0x14, 0xaf, 0x3c,
  0xd4, 0x40, 0x14, 0x3d, 0xf5, 0x31, 0xa1, 0xbd, 0x2b, 0x6e, 0x45, 0x3c,
  0xc0, 0xdc, 0x15, 0xbd, 0xa2, 0x8f, 0x5c, 0x3d, 0x56, 0x7d, 0xe7, 0xbc,
  0x55, 0x9b, 0xea, 0xbd, 0xc0, 0x49, 0xc3, 0x3d, 0x53, 0x16, 0xdf, 0xbd,
  0xbb, 0xda, 0xb4, 0x3a, 0x4d, 0x3d, 0x4b, 0xbd, 0x9d, 0xcd, 0xb9, 0xbd,
  0x17, 0xcb, 0x89, 0x3d, 0xf2, 0x03, 0x9f, 0x3d, 0xed, 0x99, 0x6a, 0x3d,
  0x83, 0x32, 0x18, 0x3d, 0x95, 0xc7, 0xb3, 0xbc, 0x80, 0xd7, 0xdd, 0xbc,
  0xe8, 0x85, 0xe5, 0xbd, 0x78, 0x15, 0x3c, 0x3d, 0x2c, 0xab, 0x26, 0x3d,
  0x37, 0xaf, 0xb9, 0x3d, 0x89, 0xb9, 0xf8, 0xbd, 0x28, 0x10, 0xf7, 0xbd,
  0x92, 0x23, 0x4c, 0x3d, 0xce, 0x2e, 0x8c, 0xbd, 0x36, 0x8a, 0x91, 0xbc,
  0x4a, 0x42, 0xa1, 0xbd, 0xb0, 0x95, 0xc4, 0xbd, 0xa8, 0xff, 0xb1, 0xbd,
  0x7f, 0x73, 0x04, 0x3e, 0xb2, 0xaf, 0xaf, 0x3d, 0xc1, 0x3e, 0x38, 0x3d,
  0x1c, 0x3b, 0xd8, 0xbd, 0xf2, 0xcb, 0x68, 0xbd, 0xd7, 0x7d, 0xb1, 0xbc,
  0xcf, 0x6a, 0xff, 0xb9, 0x8b, 0xf6, 0x6d, 0xbd, 0x43, 0x21, 0x0e, 0xbe,
  0xe8, 0x56, 0x4d, 0xbd, 0x43, 0xbb, 0xb0, 0x3c, 0x06, 0x66, 0x76, 0xbc,
  0xa2, 0x27, 0x4a, 0xbc, 0x3b, 0xc0, 0xab, 0x3c, 0x82, 0x49, 0xf8, 0x3d,
  0x6a, 0xff, 0xea, 0x3c, 0xc1, 0x76, 0x1f, 0x3d, 0x1a, 0x34, 0xa1, 0xbd,
  0x51, 0x4b, 0x85, 0x3d, 0x3f, 0x29, 0x7e, 0x3a, 0xcb, 0xf5, 0xa9, 0xbd,
  0xc7, 0x47, 0xaa, 0x3b, 0x59, 0x02, 0x82, 0xbd, 0x0d, 0x9d, 0xb7, 0x3d,
  0x1c, 0x66, 0x29, 0x3a, 0xcc, 0xf5, 0x8e, 0x3d, 0x5c, 0x58, 0x4c, 0xbc,
  0xd0, 0x80, 0xdf, 0xbb, 0x58, 0x01, 0x1d, 0xbe, 0x20, 0xa6, 0xf5, 0x3c,
  0x21, 0x90, 0xf8, 0x3b, 0x44, 0x3c, 0x9b, 0x3c, 0xb9, 0xb1, 0xf3, 0xbd,
  0xee, 0x00, 0xdb, 0xbc, 0xff, 0x8e, 0xa7, 0x3d, 0x2d, 0x70, 0xf7, 0xbd,
  0x75, 0x3b, 0x96, 0x3d, 0x0d, 0xa5, 0x28, 0xbd, 0x03, 0x6c, 0x08, 0xbe,
  0x95, 0xdd, 0xa5, 0x3d, 0xed, 0xea, 0x10, 0xbe, 0x87, 0xa0, 0xca, 0xbc,
  0x2d, 0x24, 0xb6, 0x3c, 0x6b, 0x34, 0xdb, 0x3d, 0x06, 0x95, 0xa4, 0xbc,
  0x93, 0x26, 0x6e, 0x3c, 0x8f, 0x14, 0x80, 0x3b, 0x87, 0xd3, 0xd5, 0xbc,
  0x4f, 0x2f, 0x1a, 0xbd, 0x22, 0x18, 0x8d, 0xbd, 0x6c, 0x3c, 0xcb, 0xbd,
  0xba, 0xba, 0xcf, 0xbd, 0x8b, 0x4e, 0xb3, 0x3d, 0xc8, 0xd9, 0x9d, 0xbd,
  0xfe, 0xdf, 0xe5, 0x3c, 0xa6, 0x4a, 0x9e, 0xbd, 0x0e, 0xe6, 0xf1, 0xbd,
  0x7b, 0x04, 0xd0, 0xbd, 0xdd, 0x04, 0xab, 0xbd, 0xf4, 0x70, 0xbc, 0xbd,
  0xba, 0x2b, 0x66, 0xbc, 0x16, 0x2a, 0xcb, 0x3c, 0x9a, 0xd4, 0x09, 0xbe,
  0x9a, 0xa4, 0x15, 0x3d, 0xb6, 0x6a, 0x3f, 0x3a, 0x6c, 0x77, 0x3c, 0xbd,
  0x44, 0x8d, 0xb8, 0x3c, 0x4b, 0xec, 0xec, 0x3c, 0x48, 0xd1, 0x0f, 0xbc,
  0x2c, 0x53, 0x93, 0xbd, 0xa8, 0x36, 0xbe, 0x3c, 0xd9, 0x37, 0x1d, 0xba,
  0x32, 0x0e, 0x90, 0xbc, 0x2d, 0x48, 0x96, 0x3d, 0x06, 0x6a, 0xbb, 0xbc,
  0x0f, 0xf1, 0xa3, 0xbd, 0x77, 0x65, 0xea, 0x3c, 0x61, 0x33, 0x85, 0x3d,
  0xd3, 0xec, 0x2f, 0x3d, 0x7f, 0x5d, 0xcb, 0xbd, 0x5e, 0x68, 0xfe, 0xbd,
  0x94, 0xa4, 0x0e, 0xbe, 0x43, 0xac, 0xc2, 0x3c, 0x5f, 0xaa, 0xfd, 0x3c,
  0xf5, 0xef, 0x0e, 0xbd, 0x2c, 0x3a, 0x5a, 0x3d, 0x5b, 0x00, 0x10, 0xbe,
  0x06, 0x9e, 0x69, 0x3d, 0x94, 0x70, 0x1f, 0xbd, 0x60, 0xe9, 0xc6, 0x3c,
  0x27, 0x05, 0xac, 0x3c, 0x9e, 0xb6, 0x12, 0xbc, 0x2a, 0x2f, 0x1f, 0xbd,
  0x22, 0xd0, 0xc4, 0x3c, 0x09, 0x19, 0x16, 0xbd, 0xa4, 0xba, 0x05, 0x3d,
  0xab, 0xee, 0x77, 0xbd, 0xc4, 0xde, 0x7a, 0xbd, 0x92, 0x13, 0x19, 0xbe,
  0xd9, 0x8f, 0xe4, 0xbd, 0xe1, 0xc4, 0x6b, 0x3c, 0x2a, 0x00, 0xa5, 0x3d,
  0x89, 0xd9, 0x2f, 0xbd, 0xd7, 0xe4, 0xcb, 0xbd, 0x1e, 0xfa, 0xe9, 0xbd,
  0x82, 0xe6, 0x2e, 0xbc, 0xdd, 0xbc, 0x89, 0x3d, 0xd9, 0xee, 0x8a, 0x3d,
  0xd5, 0xd6, 0x1b, 0xbd, 0xe1, 0x9f, 0x81, 0x3d, 0xfb, 0xce, 0x03, 0xbe,
  0xe5, 0x01, 0xcc, 0xbc, 0xc8, 0xc3, 0xb5, 0x3d, 0x8a, 0xc9, 0x62, 0x3d,
  0x1e, 0x92, 0x32, 0xbd, 0x08, 0x7a, 0x92, 0x3d, 0xd8, 0x7c, 0x98, 0x3d,
  0x95, 0x2a, 0xe3, 0xbd, 0x8f, 0xcd, 0x1f, 0xbd, 0xaf, 0xff, 0x9c, 0xbd,
  0x95, 0xfc, 0x9e, 0xbc, 0xd6, 0xa2, 0x9c, 0xbd, 0xd8, 0xd8, 0x81, 0x3d,
  0x88, 0x73, 0x49, 0x3d, 0xe0, 0x1f, 0xc5, 0xbd, 0xca, 0x8a, 0x6a, 0xbc,
  0x72, 0xa1, 0xd5, 0xbd, 0xb5, 0x98, 0x4c, 0xbd, 0x7f, 0x70, 0x16, 0xbd,
  0x9e, 0x39, 0xee, 0xbd, 0xec, 0x66, 0x34, 0x3d, 0xd5, 0xf3, 0x17, 0x3d,
  0x40, 0x17, 0xf9, 0x3d, 0xf2, 0x06, 0x1b, 0xbe, 0xde, 0x25, 0x63, 0x3d,
  0x46, 0x6a, 0x7d, 0xbd, 0x14, 0xf5, 0x2b, 0x3d, 0x1f, 0x99, 0xa1, 0xbc,
  0x6f, 0x47, 0x08, 0xbe, 0x36, 0x7a, 0x71, 0xbc, 0x18, 0x14, 0xc0, 0xbd,
  0x3e, 0xe2, 0xba, 0x3c, 0x8e, 0x57, 0xba, 0x3d, 0x94, 0x79, 0xc7, 0xbd,
  0x5e, 0xaa, 0x0d, 0x3e, 0x0c, 0xa1, 0xca, 0xbd, 0x94, 0x74, 0xff, 0xbd,
  0xb4, 0x35, 0xce, 0xba, 0xb6, 0xaf, 0x6c, 0x3d, 0xaf, 0x26, 0xab, 0x3d,
  0x3e, 0x86, 0x7c, 0x3d, 0xee, 0xc7, 0x0d, 0xbd, 0x96, 0x51, 0xc6, 0xbd,
  0xc2, 0xb3, 0xfd, 0xbc, 0x33, 0x07, 0x03, 0xbe, 0x98, 0xe6, 0x48, 0x3d,
  0xd1, 0x65, 0x33, 0xbb, 0xb2, 0x87, 0x74, 0x3d, 0xaa, 0x32, 0xd8, 0x3d,
  0xce, 0x7c, 0x85, 0x3d, 0xeb, 0x8d, 0x0c, 0x3d, 0x28, 0x84, 0x9e, 0xbd,
  0x0c, 0xfd, 0xcc, 0xbd, 0x60, 0x7e, 0x98, 0xbd, 0x4e, 0xb7, 0x93, 0x3d,
  0x37, 0x16, 0x88, 0x3d, 0x42, 0x71, 0xd8, 0xbd, 0x76, 0xe2, 0xa5, 0x3d,
  0x69, 0xb5, 0x96, 0x3d, 0xe8, 0xd3, 0x96, 0x3c, 0x73, 0x0f, 0xf0, 0xbc,
  0x02, 0x6e, 0x8a, 0xbd, 0x91, 0x39, 0x82, 0x3d, 0x1d, 0x40, 0xe8, 0xbd,
  0x29, 0x51, 0x91, 0xbd, 0x2a, 0xe0, 0xce, 0x3d, 0x37, 0xe8, 0xa9, 0x3d,
  0x1c, 0xf7, 0xbd, 0x3d, 0x84, 0xed, 0x79, 0xbd, 0x83, 0xb2, 0x98, 0x3d,
  0xbd, 0x8e, 0x9b, 0xbd, 0x31, 0x5b, 0x59, 0x3c, 0xf7, 0x45, 0x45, 0x3d,
  0xaa, 0xc2, 0x98, 0x3d, 0x39, 0xee, 0x02, 0x3c, 0xce, 0x8a, 0xae, 0xbb,
  0x83, 0xf7, 0x47, 0xbd, 0x5d, 0x03, 0x0b, 0xbd, 0x24, 0x2c, 0x35, 0x3d,
  0x96, 0xb5, 0x64, 0x3d, 0x3b, 0x6d, 0x01, 0xbd, 0x06, 0xf0, 0x08, 0xbb,
  0x11, 0x6e, 0x8b, 0x3d, 0x89, 0xbe, 0x1a, 0x3d, 0xf1, 0x06, 0xe8, 0xbd,
  0x14, 0xfe, 0x33, 0xbc, 0xc5, 0x11, 0xd2, 0x3d, 0x88, 0x24, 0x02, 0xbe,
  0x1a, 0x6d, 0x7e, 0xbb, 0xcd, 0xc3, 0xe1, 0xbd, 0xa2, 0x28, 0x4b, 0x3d,
  0xd4, 0x3b, 0x85, 0xbd, 0xaf, 0x21, 0x4f, 0x3d, 0xc4, 0x00, 0xb0, 0x3c,
  0x1b, 0x97, 0x9f, 0xbd, 0xb2, 0x43, 0xee, 0x3c, 0xa5, 0x9f, 0x9e, 0xbd,
  0x7e, 0x96, 0x67, 0x3c, 0x9b, 0x3b, 0xad, 0xbd, 0xba, 0xd0, 0x25, 0x3b,
  0xa2, 0x06, 0x9d, 0xbc, 0xa4, 0x33, 0xe6, 0xbd, 0xcc, 0xcd, 0x9d, 0x3b,
  0xd4, 0x92, 0xee, 0xbc, 0xa8, 0x9a, 0xdf, 0x3c, 0x88, 0xc3, 0x69, 0x3d,
  0x7c, 0x3f, 0xf9, 0xbd, 0x76, 0xeb, 0xd7, 0x3d, 0x17, 0x15, 0xb1, 0x3d,
  0x6e, 0x17, 0x87, 0x3d, 0xec, 0x1e, 0xac, 0xbd, 0x3e, 0xa9, 0xeb, 0x3b,
  0x70, 0xcb, 0xd3, 0xbd, 0x5b, 0x32, 0x90, 0x3d, 0x27, 0xc2, 0xae, 0xbd,
  0x87, 0x0f, 0x1e, 0xbd, 0xe8, 0x18, 0x71, 0xbd, 0xec, 0x38, 0xf1, 0xbd,
  0xb4, 0x21, 0xb9, 0x3d, 0xf9, 0x1a, 0xe0, 0xbd, 0x5e, 0xea, 0x54, 0x3d,
  0xcb, 0x42, 0xd6, 0xbd, 0xd8, 0xa4, 0x70, 0xbb, 0x07, 0x38, 0x21, 0xbd,
  0x51, 0xcb, 0xa6, 0x3d, 0xec, 0x7d, 0x0b, 0xbd, 0xcb, 0x49, 0xbf, 0xbd,
  0x69, 0xc2, 0xeb, 0xbc, 0x8e, 0xb8, 0xe4, 0x3c, 0x93, 0x1b, 0x95, 0xbd,
  0x59, 0x50, 0xef, 0x3d, 0x05, 0xa8, 0x50, 0xbd, 0xe5, 0x67, 0xa6, 0xbd,
  0xa2, 0x2a, 0x2a, 0xbd, 0x39, 0x5d, 0xd9, 0x3c, 0xac, 0xbb, 0x3e, 0x3c,
  0xac, 0xcd, 0xcc, 0xbd, 0xf5, 0xd5, 0x22, 0xbd, 0x29, 0xbd, 0x53, 0x3b,
  0x90, 0xdb, 0xdd, 0xbd, 0x07, 0xe6, 0xa2, 0x3d, 0x05, 0x34, 0x09, 0x3d,
  0xc8, 0x6b, 0xae, 0xbd, 0x90, 0x88, 0x3e, 0xbd, 0x8f, 0x64, 0x81, 0xbd,
  0x9d, 0xe3, 0x14, 0xbd, 0xfb, 0x9b, 0xe5, 0x3c, 0x2d, 0x40, 0xe3, 0x3d,
  0x6e, 0x93, 0xdf, 0x3d, 0x85, 0x44, 0xde, 0xb9, 0x4d, 0xaa, 0x5b, 0xbc,
  0x18, 0x5e, 0xa5, 0x3d, 0x19, 0xc3, 0x44, 0x3d, 0x5c, 0xe2, 0x94, 0xbc,
  0x69, 0xc6, 0x9a, 0x3c, 0x80, 0x3f, 0x72, 0x3d, 0xa3, 0xff, 0xa5, 0x3d,
  0x95, 0x69, 0x88, 0xbd, 0x10, 0x99, 0xa8, 0xbc, 0xf9, 0x88, 0xd4, 0xbd,
  0x01, 0x26, 0x98, 0x3d, 0x5b, 0x52, 0xa6, 0x3d, 0x3c, 0xe0, 0xbf, 0xbd,
  0x1e, 0x98, 0xc9, 0x3d, 0xeb, 0x81, 0xde, 0x3b, 0xcd, 0x00, 0x33, 0x3d,
  0x48, 0x48, 0xae, 0x3b, 0xac, 0xca, 0xc2, 0xbd, 0x7b, 0x7f, 0x15, 0xbe,
  0xff, 0xf6, 0x70, 0x3d, 0x8e, 0x2f, 0x00, 0xbd, 0xf5, 0x82, 0x75, 0xbc,
  0x3c, 0x1b, 0xb5, 0x3d, 0x29, 0xe4, 0xd3, 0x3c, 0xdc, 0xe3, 0xd2, 0xbd,
  0x18, 0xc6, 0x73, 0x3b, 0xd6, 0x4b, 0x22, 0xbe, 0x4a, 0x73, 0xd1, 0x3d,
  0xc3, 0xe1, 0x9f, 0xbd, 0xbf, 0x7f, 0xe1, 0xbd, 0x13, 0x2c, 0x3e, 0x3d,
  0x57, 0x26, 0x71, 0x3c, 0xf9, 0x87, 0xd9, 0x3d, 0xbc, 0xc5, 0x46, 0x3d,
  0x1f, 0x0c, 0xd5, 0xbd, 0xbc, 0xc3, 0xc5, 0xbb, 0xb0, 0xb9, 0xab, 0xbd,
  0xbd, 0x91, 0xbf, 0x3c, 0x49, 0xa9, 0x15, 0xbd, 0x11, 0xd9, 0x2d, 0xbc,
  0x54, 0x73, 0xda, 0xbd, 0x84, 0xda, 0x10, 0xbe, 0x16, 0x69, 0x13, 0xbe,
  0x01, 0x4f, 0xef, 0xbd, 0x4a, 0x51, 0x78, 0x3d, 0x0e, 0xce, 0x6d, 0x3c,
  0x0f, 0xe4, 0x8d, 0xbd, 0x06, 0xb8, 0x44, 0x3d, 0xd1, 0xdd, 0x82, 0x3d,
  0x5f, 0xdd, 0x0a, 0xbe, 0xb9, 0x82, 0xa2, 0xbc, 0x25, 0x98, 0x8b, 0x3d,
  0x62, 0x58, 0x57, 0xbd, 0x50, 0xf1, 0xb0, 0xba, 0xba, 0xd9, 0xec, 0x3d,
  0x06, 0x8e, 0xde, 0x3c, 0x5d, 0x34, 0x80, 0xbd, 0xd8, 0xfd, 0xa8, 0xbc,
  0x36, 0x04, 0xf3, 0xbd, 0x68, 0x21, 0xdd, 0xbd, 0xc5, 0xe3, 0x4f, 0x3d,
  0x05, 0x50, 0xb5, 0x3c, 0x10, 0x90, 0x9c, 0x3d, 0x0c, 0xf3, 0x4e, 0x3c,
  0x3a, 0x76, 0x67, 0x3d, 0x25, 0x41, 0x19, 0xbe, 0x59, 0x11, 0x6e, 0xbd,
  0xc3, 0xf7, 0x77, 0xbd, 0x00, 0x7b, 0x93, 0x3d, 0x38, 0x55, 0x07, 0xbd,
  0x84, 0x0e, 0x6e, 0xbd, 0xa4, 0x77, 0xc2, 0xbd, 0xaf, 0xe5, 0x82, 0xbd,
  0x04, 0x0f, 0x1b, 0x3d, 0xfc, 0x2e, 0x16, 0xbe, 0x66, 0x2c, 0x25, 0xbd,
  0xeb, 0xde, 0x20, 0xbd, 0x0e, 0x1d, 0xc0, 0xbd, 0xee, 0x58, 0x91, 0xbd,
  0x56, 0xd0, 0x85, 0x3d, 0xac, 0x91, 0x15, 0xbe, 0x39, 0x01, 0x60, 0x3d,
  0x3d, 0x0b, 0xaf, 0x3d, 0xe2, 0x0d, 0xbc, 0x3d, 0x5f, 0x2a, 0x21, 0xbd,
  0xae, 0xdf, 0x49, 0xbd, 0x5f, 0xda, 0x6f, 0x3d, 0xe4, 0x0e, 0x06, 0xbd,
  0x3b, 0xe6, 0xda, 0xbd, 0x96, 0x78, 0x52, 0xbd, 0x39, 0x14, 0x28, 0x3c,
  0x2a, 0x1d, 0x6e, 0x3d, 0xe7, 0x06, 0xe8, 0x3c, 0x29, 0x9c, 0x5d, 0x3c,
  0x91, 0x0e, 0xa9, 0x3c, 0xdd, 0x20, 0x85, 0xbd, 0xd4, 0x5e, 0xd2, 0x3c,
  0x2c, 0x6c, 0xb8, 0x3d, 0xf9, 0x4a, 0xcd, 0xbd, 0xfd, 0xd6, 0x01, 0xbe,
  0x02, 0x9c, 0x75, 0xbd, 0xda, 0x2a, 0x95, 0xbc, 0xf4, 0xf3, 0xf9, 0xbd,
  0xe0, 0x9a, 0x9b, 0xba, 0xc8, 0xab, 0xbb, 0xbd, 0x10, 0x61, 0xea, 0xbc,
  0x33, 0x9b, 0x06, 0xbe, 0xcd, 0x63, 0xd2, 0xbd, 0xcb, 0xee, 0x06, 0xbc,
  0xd6, 0x61, 0x02, 0xbe, 0x5f, 0x20, 0xa0, 0x3b, 0x13, 0xe9, 0xef, 0x3d,
  0x40, 0xbd, 0x3b, 0xbd, 0x4b, 0x1c, 0x4d, 0xbd, 0x60, 0x16, 0xb9, 0x3d,
  0x10, 0x8e, 0xe9, 0xbd, 0x85, 0xb9, 0xbb, 0xbd, 0xd0, 0x95, 0x9a, 0x3d,
  0x7c, 0x64, 0x49, 0x3c, 0xf6, 0x71, 0x1c, 0x3b, 0x0f, 0x3d, 0x89, 0xbc,
  0xfd, 0xee, 0x06, 0xbd, 0x6a, 0x3e, 0x05, 0x3d, 0xe7, 0xbe, 0xd3, 0xbd,
  0xe3, 0x07, 0xa5, 0xbd, 0xd3, 0x3c, 0xc2, 0x3d, 0x3a, 0x15, 0x9f, 0xbc,
  0x24, 0xeb, 0x35, 0x3c, 0x9a, 0xc2, 0xda, 0x3c, 0xb9, 0x17, 0x65, 0xbd,
  0xf5, 0x86, 0x18, 0xbe, 0x4f, 0x43, 0x18, 0xbd, 0x5f, 0x64, 0x01, 0xbe,
  0xaa, 0xeb, 0x83, 0x3d, 0x71, 0xeb, 0x0f, 0xbd, 0x7b, 0x93, 0xe2, 0xbd,
  0x5c, 0x57, 0xef, 0xbd, 0x16, 0x2c, 0x17, 0x3d, 0x12, 0xc3, 0xa2, 0xbc,
  0x70, 0xec, 0x00, 0xbe, 0x0f, 0x3f, 0xc6, 0xbd, 0xad, 0x7b, 0x06, 0xbd,
  0xbc, 0x3f, 0xcb, 0x3d, 0xf7, 0xc3, 0x9e, 0xbd, 0x23, 0xcb, 0x55, 0x3d,
  0x17, 0xaf, 0xc3, 0xbd, 0xe2, 0x22, 0xae, 0x3d, 0x69, 0xc0, 0x81, 0x3c,
  0xbb, 0x34, 0x98, 0xbc, 0xb4, 0x02, 0x07, 0x3b, 0xce, 0x2c, 0x72, 0x3b,
  0x26, 0x0f, 0x90, 0xbb, 0x2f, 0xef, 0xd6, 0x3d, 0x23, 0x4a, 0xbc, 0xbd,
  0x60, 0xd7, 0x8a, 0x3d, 0xff, 0xed, 0x2d, 0x3d, 0x42, 0x03, 0x13, 0x3d,
  0x8a, 0x75, 0x90, 0xbd, 0xd9, 0x42, 0x24, 0x3d, 0x26, 0x98, 0x5b, 0x3a,
  0x09, 0xfd, 0x99, 0xbc, 0xa8, 0x83, 0x85, 0xbc, 0xe4, 0x56, 0xbd, 0xbc,
  0xcd, 0x18, 0x01, 0xbe, 0x6c, 0xcf, 0xbe, 0x3c, 0xe1, 0x9b, 0x4b, 0x3d,
  0x8a, 0x8f, 0xbb, 0xbc, 0xa9, 0x0c, 0xf1, 0x3d, 0xf5, 0x5d, 0xca, 0x3c,
  0x1f, 0xcb, 0x02, 0x3d, 0x63, 0x41, 0xaa, 0xbd, 0xab, 0x41, 0x61, 0x3d,
  0xf3, 0x42, 0xc6, 0x3b, 0xac, 0x7a, 0x47, 0xbd, 0x94, 0xda, 0xbe, 0xbd,
  0x92, 0x39, 0xbb, 0x3d, 0xd0, 0xde, 0xa5, 0xbd, 0x94, 0x40, 0x65, 0xbd,
  0xe4, 0xd4, 0xf7, 0xbd, 0x07, 0xa3, 0x71, 0x3c, 0xb4, 0x59, 0xcb, 0xbd,
  0xa9, 0xa0, 0x65, 0xbd, 0xe0, 0xd7, 0xfb, 0xbd, 0xe5, 0x39, 0x4f, 0x3d,
  0xa5, 0x1e, 0xc1, 0xbb, 0xc0, 0xf3, 0xd4, 0x3d, 0x1e, 0x42, 0x0d, 0xbe,
  0x25, 0xf0, 0xc3, 0xbd, 0xd1, 0xbc, 0xac, 0xbc, 0xcd, 0xf3, 0x94, 0x3d,
  0xaf, 0xd7, 0x47, 0xbd, 0x7a, 0x1d, 0x0a, 0xbe, 0x78, 0xf2, 0x76, 0x3d,
  0x03, 0x60, 0x72, 0x3c, 0xe8, 0x91, 0x0d, 0x3d, 0x96, 0x77, 0xd7, 0xbc,
  0x9d, 0xc7, 0x50, 0x3c, 0x33, 0xf3, 0x92, 0xbd, 0xac, 0x39, 0x81, 0xbc,
  0x80, 0x67, 0xc7, 0x3c, 0xd5, 0xa8, 0xfb, 0x3c, 0xf4, 0x97, 0xb2, 0xbd,
  0x35, 0x6e, 0xfd, 0x3c, 0xe1, 0x99, 0x05, 0xbe, 0xa8, 0x49, 0x80, 0xbd,
  0xbf, 0xe9, 0x40, 0xbd, 0xb8, 0xe5, 0xfe, 0xbd, 0xc0, 0x68, 0x16, 0xbd,
  0xff, 0x62, 0x74, 0xbd, 0xe0, 0x99, 0xec, 0xbc, 0x58, 0x1c, 0x5a, 0x3c,
  0xed, 0x4a, 0x47, 0x3d, 0x2e, 0x7b, 0x2d, 0x3d, 0x88, 0x36, 0x53, 0xbc,
  0x62, 0x17, 0x1e, 0x3d, 0x5b, 0xbd, 0xbf, 0xbb, 0x95, 0x17, 0x29, 0x3c,
  0xbe, 0x21, 0xaa, 0xbc, 0xc4, 0x43, 0x71, 0x3d, 0x1e, 0x0a, 0xaa, 0xbd,
  0xad, 0x00, 0xd1, 0xbd, 0xf3, 0xa0, 0xf3, 0xbd, 0x59, 0x9c, 0x18, 0xbd,
  0x20, 0x3d, 0x69, 0xbc, 0x98, 0xc7, 0x54, 0x3d, 0x4b, 0xbe, 0x1d, 0x3d,
  0xaf, 0xc9, 0x56, 0xbb, 0x81, 0xeb, 0x8b, 0x3d, 0x38, 0x77, 0xb6, 0xbd,
  0xa0, 0x74, 0x93, 0x3d, 0x11, 0x64, 0xfd, 0xbd, 0xf1, 0x6a, 0xae, 0xbc,
  0x73, 0x1c, 0xab, 0xbd, 0x2f, 0x21, 0x9b, 0xbd, 0xe4, 0xa9, 0xb0, 0x3d,
  0x42, 0xf5, 0x8f, 0xbd, 0x9a, 0x06, 0xb0, 0xbd, 0xd1, 0x80, 0x00, 0xbe,
  0x0f, 0xbd, 0xf0, 0xbc, 0xb0, 0xca, 0xec, 0xbd, 0x79, 0x61, 0xda, 0xbd,
  0x6d, 0xb9, 0x6d, 0xbd, 0x42, 0x94, 0x01, 0xbe, 0x49, 0x4b, 0xee, 0x3b,
  0x55, 0x58, 0xc2, 0x3d, 0xb4, 0x00, 0x5c, 0xbd, 0x47, 0x0a, 0x0a, 0x3d,
  0xff, 0xb0, 0xb2, 0x3d, 0xa9, 0xbc, 0xb7, 0xbc, 0x0c, 0x7c, 0x17, 0xbe,
  0x85, 0x93, 0x88, 0xbd, 0x4b, 0x77, 0xd2, 0xbb, 0xdf, 0x98, 0x3d, 0x3c,
  0x60, 0x52, 0x89, 0xbd, 0x60, 0x5f, 0x07, 0x3c, 0x81, 0xae, 0x81, 0xbd,
  0xfb, 0x7b, 0xdf, 0x3d, 0x78, 0x3d, 0xdf, 0x3c, 0x2b, 0x22, 0xd5, 0xbd,
  0xa0, 0x3c, 0x8e, 0xbd, 0xee, 0xc9, 0xb1, 0x3d, 0xaf, 0xb5, 0x35, 0xbc,
  0xc6, 0x54, 0x04, 0x3d, 0x8b, 0x6b, 0xbe, 0xbd, 0x9c, 0x10, 0xbe, 0xbd,
  0x03, 0x2d, 0xbf, 0xbc, 0xdc, 0xe1, 0xcc, 0xbc, 0xa0, 0x5e, 0xb9, 0xbd,
  0x1b, 0x36, 0xd5, 0x3d, 0x43, 0xc0, 0xbf, 0xbd, 0xc4, 0x4e, 0x5d, 0xbd,
  0x90, 0x5e, 0xc4, 0x3d, 0xe5, 0x74, 0x70, 0xbd, 0xb4, 0x64, 0x78, 0xbd,
  0x41, 0x80, 0x11, 0xbd, 0xa6, 0xd2, 0x89, 0x3d, 0x90, 0x63, 0xea, 0xbd,
  0x08, 0x71, 0xdd, 0xbd, 0xfb, 0xf0, 0x97, 0xbd, 0xfc, 0x0e, 0x7e, 0x3d,
  0x9c, 0x1a, 0xcf, 0x3d, 0x18, 0xfe, 0xc9, 0xbd, 0x58, 0x90, 0xe4, 0xbc,
  0xc4, 0xec, 0x9b, 0xbc, 0xeb, 0x19, 0x6d, 0x3d, 0x70, 0xce, 0xec, 0xbd,
  0xe8, 0x54, 0x7d, 0xbd, 0x3b, 0x4c, 0xea, 0x3c, 0x84, 0xe6, 0xa3, 0x3d,
  0x80, 0x63, 0x2e, 0x3d, 0xff, 0x2e, 0x58, 0x3c, 0xc8, 0x3b, 0x0b, 0x3d,
  0xff, 0xcb, 0x87, 0xbd, 0xbe, 0x15, 0xd7, 0xbc, 0xa5, 0x59, 0x00, 0xbe,
  0x7a, 0xfb, 0xef, 0x3c, 0xb4, 0xbf, 0x0b, 0xbe, 0xaf, 0x47, 0x44, 0x3d,
  0xb3, 0xb7, 0xbf, 0x3c, 0xa7, 0xd3, 0xcc, 0x3c, 0x46, 0xdd, 0x88, 0x3d,
  0x3a, 0x37, 0xff, 0xbd, 0x37, 0x93, 0x01, 0xbd, 0xf2, 0x78, 0xf4, 0x3c,
  0x7b, 0x6e, 0xee, 0x3c, 0x91, 0x19, 0x36, 0x3d, 0x5d, 0xec, 0x97, 0xbd,
  0x14, 0xbc, 0x17, 0x3d, 0x03, 0x04, 0x55, 0x3d, 0x04, 0xfa, 0xd9, 0x3d,
  0x85, 0xfa, 0x4c, 0xbd, 0x03, 0xda, 0xee, 0xbc, 0x23, 0x1a, 0xdd, 0xbd,
  0xae, 0x4e, 0xfa, 0xbd, 0x38, 0x55, 0x1e, 0x3d, 0xea, 0x90, 0xd9, 0xbd,
  0xbe, 0x88, 0xe9, 0xbd, 0x50, 0x72, 0xc4, 0xbd, 0x38, 0x60, 0x94, 0x3d,
  0x48, 0xd7, 0x86, 0xbd, 0x52, 0x48, 0xe1, 0xbd, 0x60, 0x7d, 0x4b, 0x3c,
  0x91, 0xce, 0x06, 0xbe, 0xba, 0xd3, 0xb3, 0xbd, 0x1c, 0x8c, 0xbd, 0xbc,
  0xdc, 0x64, 0x59, 0x3d, 0x1b, 0xec, 0xed, 0xbd, 0x06, 0x9c, 0x72, 0x3d,
  0x79, 0x40, 0x97, 0x38, 0x23, 0x35, 0xe9, 0xbd, 0x60, 0x8a, 0xde, 0x3d,
  0x67, 0x6d, 0x19, 0xbd, 0xe1, 0x38, 0xb3, 0x3d, 0x9b, 0x8b, 0x8d, 0x3c,
  0xd6, 0x10, 0xb0, 0x3d, 0x93, 0x8b, 0x78, 0x3d, 0x5e, 0x7b, 0xcb, 0xbd,
  0x6c, 0x3b, 0xef, 0xbd, 0x68, 0x48, 0xeb, 0xbd, 0xd5, 0xc9, 0x60, 0xbc,
  0xa3, 0xf3, 0x1a, 0x3d, 0xbe, 0x6f, 0xb0, 0xbd, 0x82, 0xf0, 0xa3, 0xbc,
  0xf5, 0x73, 0xf1, 0x3d, 0x46, 0x47, 0x95, 0xbd, 0x92, 0x16, 0x81, 0x3d,
  0x14, 0x5d, 0xf8, 0xbd, 0x91, 0x80, 0x1a, 0x3d, 0x8e, 0x7e, 0xe7, 0x3c,
  0x11, 0x7a, 0xa1, 0xbd, 0x46, 0x6b, 0xda, 0xbc, 0xc1, 0xaa, 0xb3, 0xbd,
  0x85, 0xa1, 0x04, 0x3e, 0x9d, 0x20, 0x92, 0x3d, 0x19, 0xb4, 0xbb, 0xbc,
  0x2c, 0x10, 0x9a, 0x3d, 0x81, 0x9e, 0x0b, 0xbe, 0x9a, 0xfb, 0xea, 0xbc,
  0xbc, 0x7b, 0x9b, 0x3d, 0x52, 0xf7, 0x3a, 0xbc, 0x6b, 0x48, 0x15, 0xbe,
  0x0f, 0x95, 0x09, 0xbe, 0xcc, 0xf8, 0xa1, 0x3c, 0xd4, 0x34, 0x25, 0xbc,
  0xcd, 0xdd, 0x8c, 0xbd, 0x8a, 0xc2, 0x08, 0x3d, 0x9b, 0x31, 0x1b, 0x3b,
  0xd4, 0x24, 0xc5, 0x3c, 0x52, 0x8d, 0xa4, 0xbd, 0x2a, 0x19, 0x13, 0xbe,
  0x47, 0x90, 0x45, 0x3d, 0x5f, 0x85, 0xb4, 0x3c, 0x8b, 0x11, 0x09, 0x3d,
  0xd3, 0xd0, 0x9b, 0x3d, 0xed, 0x55, 0x11, 0x3d, 0xe0, 0x68, 0x2d, 0xbd,
  0xf2, 0x28, 0xdd, 0x3c, 0x9b, 0x9d, 0x4c, 0x3d, 0xca, 0x79, 0x88, 0xbd,
  0xc9, 0x48, 0xe4, 0xbd, 0x31, 0x1f, 0x12, 0x3d, 0x1e, 0xae, 0x88, 0xbd,
  0x5b, 0x72, 0x47, 0xbd, 0x61, 0x9d, 0x85, 0x3d, 0x0d, 0x74, 0x79, 0x3c,
  0x47, 0xa0, 0xb6, 0xbd, 0x99, 0xb6, 0x80, 0x3d, 0xb5, 0xf9, 0x4b, 0xbc,
  0x9d, 0xc6, 0x81, 0xbd, 0x00, 0xa9, 0x66, 0x3d, 0xdd, 0xfc, 0x8e, 0xbd,
  0x01, 0xf2, 0x19, 0x3d, 0xac, 0xd5, 0x04, 0xbd, 0xb3, 0xa2, 0x31, 0xbb,
  0xf9, 0xbd, 0x9b, 0xbd, 0x3b, 0xa2, 0xeb, 0xbc, 0xc8, 0x71, 0x59, 0xbd,
  0xc3, 0x1a, 0x9b, 0x3d, 0x6b, 0x9e, 0x03, 0xbe, 0x89, 0xc2, 0xda, 0x3c,
  0x58, 0xb7, 0x9d, 0x3d, 0xe4, 0x57, 0xa5, 0xbd, 0xe4, 0x77, 0x2a, 0xbd,
  0xb0, 0x9a, 0xee, 0xbc, 0x36, 0xca, 0x26, 0xbc, 0x3f, 0x3e, 0xb9, 0xbd,
  0x62, 0xb8, 0x96, 0x3c, 0xdf, 0x4b, 0xaf, 0x3d, 0x17, 0x80, 0x69, 0xbc,
  0x45, 0x4e, 0x8e, 0xbd, 0x4a, 0x2e, 0xf0, 0xbd, 0x28, 0x3a, 0x74, 0xbd,
  0xe6, 0xe7, 0x42, 0x3d, 0x10, 0x1b, 0x9f, 0xbc, 0xd9, 0x96, 0xbe, 0xbd,
  0xfe, 0x84, 0x06, 0xbd, 0x9c, 0xea, 0x4d, 0x3d, 0x09, 0x35, 0x85, 0x3d,
  0xce, 0x95, 0x8c, 0xbd, 0xf2, 0x0e, 0xb2, 0xbd, 0x2c, 0x6c, 0xf6, 0xbc,
  0xbc, 0x8b, 0xb4, 0x3d, 0x21, 0xd5, 0x15, 0xbd, 0xef, 0x43, 0x1b, 0xbd,
  0x2c, 0x78, 0x1c, 0xbd, 0x3e, 0x11, 0xff, 0xbc, 0xab, 0x5f, 0x04, 0xbe,
  0x7c, 0xab, 0xa4, 0x3d, 0xac, 0x31, 0x40, 0x3d, 0x43, 0x1c, 0xa7, 0x3d,
  0xd4, 0xc2, 0x8d, 0x3d, 0x38, 0x3f, 0xb4, 0xbd, 0xca, 0x6f, 0xea, 0xbc,
  0x43, 0x29, 0x30, 0x3b, 0x79, 0xa3, 0x20, 0xbd, 0x22, 0x8c, 0x92, 0x3d,
  0x4d, 0x84, 0x7f, 0xbd, 0x2a, 0xf4, 0x8f, 0xbd, 0xfa, 0x72, 0xd9, 0xbd,
  0xe1, 0xff, 0xa7, 0x3d, 0xc6, 0x99, 0xe0, 0xbd, 0xe0, 0x9d, 0xb8, 0xbd,
  0xb5, 0x1a, 0x09, 0xbe, 0x5a, 0x3f, 0xa5, 0xbc, 0x7e, 0xf5, 0x18, 0x3d,
  0x84, 0x48, 0xb5, 0xbd, 0x75, 0xf6, 0x47, 0x3d, 0xdb, 0x23, 0xad, 0x3d,
  0x3a, 0x99, 0x0e, 0xbe, 0xfb, 0xeb, 0xab, 0x3d, 0x5c, 0x39, 0xd5, 0xbd,
  0x4f, 0x63, 0x25, 0xbd, 0x0a, 0xf8, 0xd5, 0xbc, 0x88, 0xc3, 0xd7, 0xbd,
  0x31, 0x6b, 0xfd, 0x3d, 0x7a, 0x90, 0xdd, 0xbc, 0x4f, 0xbd, 0xac, 0xbd,
  0x02, 0x61, 0xd7, 0xbd, 0xdb, 0x12, 0x9c, 0x3d, 0x9b, 0x6b, 0x54, 0x3d,
  0x5f, 0xbd, 0x77, 0x3d, 0xb6, 0xf3, 0x7f, 0x3d, 0xbb, 0x54, 0x6d, 0x3d,
  0x97, 0xc7, 0x35, 0xbd, 0x0d, 0x77, 0x3f, 0xbd, 0xb8, 0x5d, 0xed, 0x3c,
  0xee, 0x77, 0x11, 0x3d, 0x94, 0x05, 0x65, 0xbd, 0xe7, 0xe0, 0x76, 0x3c,
  0x62, 0xc2, 0x88, 0x3d, 0x54, 0xc5, 0x8a, 0xbd, 0xfc, 0xdd, 0xae, 0xbd,
  0x6b, 0x26, 0xbb, 0xbb, 0xa5, 0xf4, 0xc5, 0xbd, 0x8c, 0x14, 0x60, 0xbb,
  0x29, 0x2b, 0x4e, 0x3d, 0xe8, 0x67, 0xa0, 0x3d, 0xe2, 0x33, 0xee, 0x3d,
  0xbc, 0xfc, 0xd8, 0x3d, 0xf7, 0x92, 0x5f, 0xbd, 0xfa, 0x24, 0x07, 0xbe,
  0x5d, 0xa0, 0x0b, 0xbe, 0x5f, 0x9b, 0xd6, 0xbc, 0xb3, 0xe1, 0x0c, 0xbe,
  0x27, 0xea, 0x24, 0xbd, 0xbd, 0x05, 0x87, 0xbd, 0xd8, 0x0b, 0x4b, 0xbd,
  0xb4, 0xe5, 0x60, 0xbc, 0xae, 0x72, 0x06, 0xbe, 0xab, 0xfc, 0xec, 0xbd,
  0xf5, 0x9f, 0x6d, 0x3c, 0x8e, 0x11, 0xd2, 0x3d, 0xfc, 0xe5, 0xc8, 0xbd,
  0xdf, 0x2b, 0x6f, 0xbd, 0x75, 0x06, 0xb7, 0xbc, 0x02, 0x20, 0x00, 0xbb,
  0x31, 0x47, 0xc0, 0x3d, 0x96, 0xbd, 0x0c, 0xbc, 0x32, 0xd4, 0x3b, 0x3d,
  0x16, 0x5e, 0xa7, 0xbd, 0x27, 0xe9, 0xbb, 0x3d, 0xef, 0x3b, 0x0f, 0x3d,
  0x9d, 0x56, 0xc1, 0xbd, 0x9d, 0x22, 0x51, 0xbd, 0xc9, 0x57, 0x1b, 0x3c,
  0xd7, 0xa1, 0xac, 0x3d, 0x87, 0xe2, 0xa2, 0x3d, 0xb1, 0xc6, 0xae, 0xbd,
  0x79, 0x50, 0xa7, 0x3c, 0x52, 0x90, 0x37, 0xbd, 0x2e, 0x01, 0x93, 0x3d,
  0xc2, 0x19, 0x69, 0xbd, 0x86, 0xe2, 0xb5, 0xba, 0x81, 0x04, 0x72, 0xbd,
  0x54, 0x7f, 0x88, 0x3c, 0x30, 0xaf, 0xfb, 0x3c, 0x6a, 0x1d, 0x92, 0x3d,
  0xfc, 0x6a, 0x76, 0x3d, 0x6a, 0x18, 0xb4, 0xbc, 0x04, 0x3c, 0x89, 0x3d,
  0x18, 0xfc, 0x12, 0xbd, 0xaf, 0x60, 0xc6, 0x3d, 0x60, 0x57, 0xb7, 0x3d,
  0x6b, 0x7c, 0x56, 0x3d, 0x42, 0xde, 0x55, 0x3b, 0xbb, 0x19, 0xec, 0x3d,
  0xf8, 0x44, 0xbb, 0xbd, 0xe7, 0x12, 0x49, 0xbd, 0xc9, 0xdb, 0xbb, 0xbd,
  0x07, 0x22, 0x68, 0xbb, 0x78, 0xb2, 0x9c, 0x3d, 0xeb, 0x11, 0x64, 0x3d,
  0xe0, 0x44, 0x7a, 0xbd, 0x44, 0xf8, 0x51, 0xbc, 0x84, 0xa7, 0xcd, 0x3d,
  0x3e, 0x36, 0xb9, 0xbb, 0x24, 0x6b, 0x49, 0x3d, 0x27, 0x30, 0xcd, 0x3c,
  0x7c, 0x87, 0x7b, 0x3c, 0x8b, 0x29, 0x8b, 0x3d, 0xaa, 0xef, 0xc0, 0x3d,
  0xa1, 0xf8, 0x60, 0xbc, 0xf9, 0x87, 0xad, 0x3d, 0xb7, 0x17, 0x2e, 0xbc,
  0x8e, 0x79, 0x03, 0x3b, 0xbb, 0x93, 0x33, 0x3d, 0xbc, 0x02, 0x6a, 0x3d,
  0xc6, 0xd1, 0x8f, 0xbd, 0xfd, 0x4e, 0xae, 0x3b, 0x33, 0x1a, 0x09, 0xbe,
  0x3e, 0xa7, 0xa7, 0xbd, 0x24, 0x70, 0xde, 0x3d, 0x7b, 0x1a, 0x08, 0xbe,
  0xe6, 0x98, 0xa8, 0xbd, 0x9a, 0x0e, 0xbe, 0x3c, 0x0b, 0x99, 0xae, 0xbc,
  0xf7, 0xb5, 0x38, 0xbd, 0xa8, 0xf4, 0xa1, 0x3d, 0xdb, 0x2e, 0x3e, 0xbd,
  0x2f, 0x88, 0xd5, 0xbc, 0x6e, 0x99, 0x10, 0xbd, 0x10, 0x56, 0x00, 0x3d,
  0x11, 0x36, 0x6c, 0x3d, 0xb9, 0xd5, 0xf6, 0xbd, 0x62, 0xf2, 0x68, 0x3d,
  0x9c, 0xec, 0xae, 0x3c, 0x78, 0x80, 0xb2, 0x3c, 0x21, 0x0a, 0x99, 0x3d,
  0x04, 0xb9, 0xbb, 0xbd, 0xb8, 0x88, 0xb4, 0x3b, 0x9e, 0xe8, 0x54, 0x3d,
  0xe4, 0x34, 0x9b, 0x3d, 0xb2, 0xee, 0xb2, 0x3d, 0xa4, 0x66, 0xa2, 0x3d,
  0xed, 0x58, 0x13, 0x3d, 0x4b, 0x6f, 0xce, 0x3d, 0xd4, 0xf1, 0x5a, 0xbd,
  0xaa, 0x1f, 0xb7, 0xbd, 0x3c, 0x62, 0x31, 0x3b, 0xb8, 0xd5, 0x62, 0xbc,
  0x70, 0xa4, 0xae, 0xbd, 0x7b, 0x3e, 0x55, 0x3d, 0x79, 0x6d, 0xbb, 0x3d,
  0x95, 0x24, 0xbf, 0xbd, 0x49, 0x91, 0x49, 0x3d, 0xed, 0x3f, 0xf3, 0xbd,
  0x7c, 0xbb, 0x8c, 0x3d, 0x62, 0x38, 0x6d, 0x3c, 0xe7, 0x3a, 0x2f, 0xbd,
  0x74, 0x49, 0x80, 0x3b, 0x02, 0x71, 0xcc, 0xbd, 0x9c, 0xfc, 0x5d, 0xbd,
  0x14, 0x2c, 0xc7, 0x3d, 0xf3, 0x1f, 0xc3, 0xbc, 0xd5, 0x55, 0x05, 0xbe,
  0x1c, 0x38, 0x51, 0xbc, 0xf7, 0xc4, 0x6b, 0x3c, 0x0f, 0xb0, 0xb3, 0x3c,
  0xa5, 0x77, 0x37, 0x3c, 0x90, 0x25, 0x59, 0xbd, 0x37, 0x7a, 0x2d, 0x3d,
  0x04, 0xfc, 0x95, 0x3d, 0x5a, 0xa2, 0xec, 0xbc, 0x20, 0x42, 0xf7, 0xbc,
  0x18, 0xea, 0x91, 0xbc, 0x0b, 0xa7, 0x6c, 0x3c, 0x5a, 0x50, 0x4b, 0x3d,
  0xb0, 0xbe, 0xe8, 0x3d, 0xae, 0xec, 0xd1, 0x3d, 0x28, 0x60, 0x59, 0x3d,
  0x6e, 0xb9, 0x90, 0xbd, 0xc0, 0x4c, 0x68, 0xbc, 0xb1, 0x68, 0x07, 0xbe,
  0x50, 0x64, 0xc4, 0x3d, 0xef, 0x03, 0x83, 0xbc, 0x51, 0x3a, 0xe3, 0x3d,
  0x1d, 0xcc, 0x96, 0xbd, 0x32, 0x2a, 0x41, 0x3b, 0x63, 0x64, 0x98, 0x3b,
  0xf2, 0xb4, 0xab, 0x3d, 0x4a, 0xeb, 0x02, 0xbe, 0x5d, 0x21, 0x66, 0x3d,
  0x1e, 0x5a, 0xa9, 0xbd, 0x7e, 0xb2, 0x47, 0x3d, 0x07, 0x3e, 0x05, 0x3d,
  0xda, 0x7e, 0x94, 0xbd, 0x42, 0xe3, 0x23, 0xbe, 0x59, 0xa9, 0x5d, 0xbd,
  0x35, 0x22, 0x5a, 0x3d, 0xd6, 0xf9, 0x67, 0x3c, 0x24, 0x03, 0x3b, 0xbd,
  0x49, 0xb0, 0x08, 0xbe, 0xea, 0x70, 0x91, 0x3d, 0x23, 0x16, 0x54, 0xbd,
  0xee, 0x14, 0x00, 0x3d, 0x19, 0x3f, 0x87, 0xbc, 0xed, 0xe6, 0x82, 0xbd,
  0x79, 0x90, 0xab, 0x3d, 0x41, 0xa8, 0xb7, 0xbd, 0xe7, 0xa8, 0xb9, 0x3d,
  0x78, 0x7b, 0x02, 0x3e, 0xdc, 0xa8, 0x08, 0x3e, 0x93, 0x48, 0x87, 0xbd,
  0xb5, 0xcb, 0x9d, 0xbd, 0x16, 0x4e, 0xde, 0xbc, 0x81, 0x88, 0x74, 0xbc,
  0x9e, 0x57, 0x8b, 0xbd, 0xe5, 0x88, 0xa8, 0xbd, 0x4b, 0x51, 0x6b, 0x3d,
  0x75, 0x0a, 0xb3, 0xbc, 0x36, 0x77, 0xb6, 0xbd, 0x3e, 0xe7, 0xf7, 0x3d,
  0x81, 0xa0, 0xa1, 0xbc, 0x42, 0x7f, 0x81, 0x3d, 0x3c, 0x17, 0x4c, 0x3d,
  0x2c, 0x37, 0x8d, 0x39, 0x23, 0x51, 0x99, 0x3d, 0x10, 0xaf, 0xe3, 0xbd,
  0xa8, 0x87, 0x00, 0xbd, 0xd0, 0xa5, 0x70, 0x3d, 0x0b, 0x09, 0x95, 0x3b,
  0xdd, 0xac, 0xd9, 0x3d, 0xf0, 0xb5, 0xaf, 0xbc, 0x05, 0x6e, 0x35, 0x3d,
  0x0b, 0xb6, 0xf2, 0xbd, 0x1f, 0xeb, 0xd1, 0xbd, 0xea, 0x27, 0x19, 0xbc,
  0xfd, 0x53, 0x6a, 0x3d, 0x94, 0xf0, 0x39, 0x3d, 0xcc, 0x0f, 0x69, 0x3b,
  0x43, 0x15, 0x91, 0x3d, 0x4b, 0x0c, 0x25, 0xbd, 0x3e, 0xd9, 0x0d, 0x3e,
  0xcc, 0x7f, 0xe5, 0xbd, 0x44, 0xda, 0xbf, 0xbc, 0x38, 0x4b, 0x82, 0x3d,
  0x62, 0x52, 0xa6, 0x3c, 0xf4, 0x53, 0xda, 0x3d, 0x93, 0xab, 0xc4, 0xbc,
  0xb9, 0x43, 0x5a, 0x3d, 0x45, 0x7e, 0x1e, 0xbb, 0x82, 0x24, 0x07, 0xbe,
  0xe9, 0xcc, 0xe6, 0x3d, 0xc2, 0x40, 0x5e, 0x3c, 0x58, 0xab, 0x90, 0x3d,
  0x36, 0xae, 0xe9, 0xbc, 0x02, 0x02, 0xcd, 0xbd, 0xfd, 0xa4, 0xa1, 0xbd,
  0xd1, 0x98, 0xad, 0x3c, 0x46, 0xfb, 0xb5, 0x3d, 0x35, 0x9f, 0x73, 0xbc,
  0x65, 0xb1, 0x85, 0x3d, 0x1b, 0x5e, 0xcc, 0x3d, 0x6f, 0x2c, 0x8d, 0x3d,
  0x4e, 0x81, 0x06, 0xbc, 0xcf, 0xb0, 0x0b, 0x3d, 0x26, 0xcd, 0xd9, 0xbd,
  0x09, 0x74, 0x2d, 0x3c, 0x23, 0x62, 0x5f, 0xbd, 0x91, 0xd6, 0xa2, 0x3d,
  0xae, 0x2c, 0xa1, 0xbd, 0x7f, 0xe9, 0xd8, 0x3d, 0xa0, 0x70, 0xc7, 0xbc,
  0xca, 0x9f, 0xc3, 0x3d, 0x2d, 0x0f, 0xde, 0x3d, 0x71, 0x88, 0xdc, 0xbc,
  0xeb, 0x0b, 0xe5, 0xbd, 0xc4, 0x86, 0xc5, 0xbd, 0x53, 0xfd, 0xc3, 0xbd,
  0x2d, 0xd4, 0xcb, 0xbd, 0x02, 0x1e, 0x62, 0xbd, 0x8b, 0xda, 0x59, 0xbd,
  0x95, 0xce, 0x93, 0xbd, 0xc8, 0x75, 0x69, 0xbc, 0x98, 0xd7, 0x43, 0xbd,
  0x6c, 0x3e, 0xc9, 0xbd, 0x26, 0x12, 0xb5, 0xbd, 0xc7, 0x7f, 0x9d, 0x3d,
  0x51, 0x9d, 0xb8, 0x3d, 0x4c, 0xce, 0xd6, 0xbd, 0x7c, 0x62, 0x06, 0x3d,
  0x35, 0xeb, 0x80, 0x3d, 0xf2, 0xe1, 0xaf, 0xbd, 0xc1, 0x0c, 0xec, 0x3d,
  0x6a, 0x25, 0xaf, 0x3d, 0x12, 0xba, 0x44, 0xbd, 0x7e, 0xaf, 0xf7, 0xbc,
  0xf8, 0xfa, 0x14, 0xbc, 0xf5, 0x92, 0xc1, 0x3c, 0xa3, 0x9d, 0xc4, 0x3d,
  0xba, 0x09, 0x2c, 0x3d, 0x40, 0x91, 0x03, 0xbe, 0xb1, 0x73, 0x82, 0x3c,
  0xb1, 0xc6, 0x20, 0xbd, 0x83, 0x8a, 0x9c, 0x3c, 0x47, 0xca, 0x4a, 0x3d,
  0x2d, 0x51, 0x8d, 0x3c, 0x0b, 0xb1, 0x31, 0x3d, 0x94, 0x3f, 0x2f, 0x3c,
  0x17, 0x93, 0xb3, 0x3d, 0xb6, 0x49, 0xa5, 0xbc, 0xe9, 0xec, 0x2c, 0xbd,
  0xc3, 0xec, 0x6e, 0xbd, 0xe1, 0x78, 0x46, 0xbb, 0x21, 0x7e, 0x51, 0x3c,
  0x17, 0xb2, 0xaf, 0xbd, 0x7e, 0x90, 0x83, 0x3d, 0x9a, 0xab, 0x97, 0x3c,
  0x3d, 0x3b, 0x7a, 0xbd, 0x5b, 0x31, 0x08, 0xbe, 0xf4, 0x29, 0xdc, 0xbb,
  0xfb, 0xdc, 0x42, 0xbe, 0xc3, 0x17, 0x89, 0x3d, 0x39, 0xaf, 0xb7, 0x3c,
  0x80, 0xad, 0x0e, 0xbe, 0x87, 0x6e, 0x2a, 0x3d, 0xc9, 0x4c, 0xbe, 0xbd,
  0x50, 0xfe, 0xf6, 0x3c, 0x9b, 0x5f, 0x26, 0x3d, 0xd9, 0xb7, 0x5c, 0x3d,
  0x89, 0x37, 0x85, 0x3d, 0x7a, 0xe3, 0x28, 0xbc, 0xbf, 0x57, 0x78, 0x3c,
  0x77, 0xd5, 0xd0, 0xbd, 0xb8, 0x86, 0x81, 0x3d, 0xf5, 0xa2, 0x50, 0xbd,
  0x1d, 0xb7, 0xa9, 0xbd, 0xf4, 0xc3, 0xe7, 0x3b, 0x04, 0xfb, 0xd1, 0xbc,
  0x65, 0x8d, 0x47, 0xbd, 0x8c, 0xcc, 0x79, 0x3d, 0x2b, 0x93, 0x09, 0xbe,
  0x1d, 0xb2, 0x70, 0xbd, 0x68, 0x74, 0x63, 0x3d, 0x74, 0xf5, 0x35, 0xbd,
  0x29, 0xee, 0x03, 0xbc, 0xea, 0x30, 0xfa, 0x3c, 0xd6, 0xc1, 0x2f, 0xbe,
  0x2b, 0x9f, 0xa4, 0xbc, 0x6c, 0x17, 0xe4, 0x3d, 0x77, 0xe8, 0xe8, 0x3c,
  0x57, 0xeb, 0x06, 0x3d, 0x50, 0x5a, 0xe4, 0xbd, 0xd8, 0xd2, 0x85, 0x3c,
  0xda, 0x51, 0x9e, 0x3d, 0xc0, 0x06, 0xef, 0xbc, 0xb7, 0x71, 0xad, 0xbd,
  0x5e, 0x81, 0xa7, 0xbd, 0x2d, 0x6b, 0xd7, 0xbd, 0xcb, 0xe0, 0xd8, 0xbd,
  0xa7, 0xa8, 0x14, 0x3c, 0xab, 0xa8, 0xb1, 0x3d, 0xd6, 0x8d, 0xa3, 0x3c,
  0x23, 0xe6, 0x85, 0xbd, 0x5c, 0x21, 0x09, 0x3d, 0xeb, 0x47, 0x11, 0xbd,
  0xc2, 0x22, 0x0b, 0xbd, 0x09, 0x9e, 0x18, 0xbc, 0xf5, 0xf4, 0x82, 0xbd,
  0x18, 0xff, 0x72, 0x3c, 0xcf, 0x60, 0xd7, 0xbc, 0x35, 0xba, 0x65, 0x3d,
  0x5e, 0x57, 0xf3, 0xbd, 0x7c, 0xd6, 0x64, 0xbd, 0xfb, 0xbb, 0xf2, 0xbc,
  0xa4, 0xa1, 0x81, 0x3d, 0x12, 0xc3, 0xf5, 0xbc, 0x06, 0x18, 0x88, 0x3d,
  0x67, 0x1e, 0x8e, 0xbd, 0x27, 0xb4, 0x09, 0xbe, 0x8b, 0xf5, 0x5a, 0x3c,
  0xf5, 0xd9, 0x6c, 0xbc, 0x47, 0x0f, 0xdb, 0x3d, 0x53, 0x26, 0xf7, 0xbd,
  0x1b, 0xc7, 0xcd, 0x3c, 0xbd, 0x86, 0xe3, 0xbd, 0xb0, 0x83, 0xa1, 0xbd,
  0x98, 0x54, 0x45, 0xbb, 0x8a, 0x91, 0xb7, 0xbd, 0xbb, 0xbd, 0x09, 0xbe,
  0xd5, 0x0e, 0xa8, 0xbd, 0x77, 0xf3, 0x98, 0xbc, 0x32, 0x9d, 0x18, 0x3d,
  0xb4, 0x94, 0x4c, 0xbd, 0x50, 0xc2, 0xad, 0x3d, 0x72, 0xfc, 0x2b, 0xbd,
  0x7e, 0x82, 0x05, 0x3d, 0x9f, 0x3d, 0xc3, 0xbd, 0x28, 0x49, 0xbc, 0x3d,
  0x48, 0x80, 0x2a, 0xbd, 0x97, 0x3a, 0x19, 0xbe, 0x2f, 0x24, 0x8c, 0xbc,
  0x7c, 0xa7, 0xbf, 0x3d, 0x55, 0xfc, 0x1a, 0xbe, 0x38, 0x1b, 0x67, 0x3d,
  0x99, 0xa2, 0x86, 0xbc, 0x9d, 0xa5, 0x8c, 0xbd, 0xb9, 0xfe, 0xc9, 0xbd,
  0xde, 0xf7, 0xce, 0x3d, 0x57, 0x78, 0x1c, 0x3d, 0xcb, 0x16, 0x8c, 0x3d,
  0x4d, 0x39, 0xbc, 0xbd, 0xf8, 0xba, 0x83, 0xbc, 0x60, 0x33, 0x39, 0xbd,
  0x88, 0x42, 0x90, 0xbd, 0x7c, 0x17, 0xbd, 0xbc, 0x8d, 0xfe, 0x93, 0x3d,
  0xe0, 0xeb, 0xf4, 0xbd, 0x7c, 0x18, 0x48, 0xbd, 0x9c, 0xd1, 0x83, 0x3c,
  0x6f, 0xf9, 0xa3, 0xbc, 0x8e, 0x4f, 0x19, 0xbd, 0x84, 0xe9, 0xcc, 0xbd,
  0x6a, 0x3f, 0xf7, 0xb8, 0x37, 0x75, 0x80, 0x3d, 0x91, 0xf6, 0x24, 0x3d,
  0x63, 0xb3, 0x09, 0xbe, 0x49, 0xf6, 0x72, 0xbb, 0xd8, 0xb1, 0xe6, 0x3c,
  0xc8, 0x29, 0x26, 0xbd, 0xfe, 0xb7, 0x5a, 0x3d, 0xa8, 0x3d, 0x3d, 0xbd,
  0x9a, 0x7b, 0x76, 0xbd, 0x58, 0xd5, 0xd8, 0x3c, 0x34, 0x7a, 0x71, 0xbd,
  0xea, 0xf0, 0xe9, 0x3b, 0x8c, 0x70, 0xc4, 0xbc, 0x2b, 0xd7, 0xc3, 0xbd,
  0x61, 0xbe, 0x61, 0xbd, 0xdd, 0xf5, 0xc5, 0xbd, 0x61, 0x77, 0x95, 0xbd,
  0x2d, 0x1c, 0x9d, 0xbd, 0x58, 0xe6, 0xba, 0x3d, 0xc0, 0xd6, 0x19, 0xbd,
  0x60, 0x76, 0xad, 0x3c, 0x94, 0x6e, 0x62, 0xbd, 0x9c, 0x1f, 0x22, 0xbd,
  0x91, 0x32, 0x35, 0x3d, 0xb2, 0xb6, 0x28, 0x3d, 0x5c, 0xa8, 0x53, 0xbd,
  0xcd, 0x3a, 0xe1, 0xbd, 0x62, 0x69, 0x1a, 0xbe, 0xeb, 0x82, 0xc4, 0xbd,
  0xec, 0x74, 0x11, 0x3d, 0x85, 0x82, 0xc3, 0xbd, 0xff, 0x3a, 0x0a, 0xbe,
  0x9f, 0xda, 0xbb, 0xbc, 0x8f, 0x65, 0x97, 0x3c, 0xbb, 0x8c, 0xa4, 0x3d,
  0x3f, 0x34, 0x9f, 0xbd, 0xb3, 0xca, 0x1b, 0xbb, 0x6f, 0x89, 0xc2, 0x3d,
  0x69, 0x89, 0xd2, 0x3b, 0x7c, 0xf9, 0x23, 0xbd, 0xdb, 0x30, 0x9f, 0xbd,
  0x30, 0x9c, 0x1c, 0xbe, 0xd4, 0x1a, 0xa6, 0x3d, 0x55, 0x35, 0xc2, 0x3d,
  0x4e, 0xad, 0x2c, 0xbc, 0x46, 0x82, 0x2e, 0x3c, 0x6f, 0x67, 0x96, 0x3d,
  0x20, 0x20, 0x2b, 0xbd, 0x02, 0x4d, 0x7f, 0xbd, 0x38, 0xfc, 0xb8, 0x3d,
  0xa2, 0xd8, 0x03, 0xbe, 0x1d, 0x17, 0xfb, 0xbd, 0x84, 0x9f, 0xb2, 0x3d,
  0x77, 0x0a, 0x89, 0xbd, 0xd2, 0x23, 0x4e, 0x3d, 0x6d, 0xc3, 0xf4, 0xbc,
  0x4b, 0xec, 0xd1, 0xbd, 0x72, 0x16, 0x2a, 0x3d, 0xcd, 0xc5, 0xa9, 0xbd,
  0x69, 0x87, 0xaa, 0x3d, 0x0a, 0x9b, 0xe2, 0xbd, 0x80, 0xd7, 0x84, 0xbc,
  0x5a, 0xde, 0xb4, 0x3b, 0x8f, 0x60, 0x8c, 0xbd, 0x05, 0xfd, 0x6f, 0x3d,
  0x0d, 0xfe, 0xc2, 0xbd, 0x9f, 0xbd, 0xee, 0xbc, 0x30, 0x07, 0x02, 0xbe,
  0xfe, 0x81, 0x97, 0xbd, 0x73, 0xa7, 0xa0, 0xbc, 0xb4, 0x74, 0x97, 0x3d,
  0xda, 0x7d, 0xca, 0x3c, 0xc7, 0x60, 0xae, 0x3d, 0x3e, 0x3d, 0x95, 0x3d,
  0x44, 0x9d, 0x68, 0x3d, 0x5e, 0x80, 0x06, 0x3b, 0x78, 0x91, 0xbe, 0xbd,
  0xe0, 0xfc, 0x4c, 0xbd, 0x2f, 0x3b, 0xf8, 0xbb, 0xac, 0xe8, 0x88, 0x3d,
  0x1f, 0x4b, 0x7e, 0xbd, 0xa3, 0x54, 0x1a, 0xbd, 0x19, 0x86, 0xd6, 0xbc,
  0x53, 0xdb, 0x63, 0x3a, 0x06, 0xdb, 0x85, 0x3d, 0xa2, 0xf7, 0x99, 0xbd,
  0xa1, 0x54, 0x08, 0x3c, 0xa0, 0x15, 0x46, 0x3c, 0x16, 0x8f, 0xfa, 0x3c,
  0x8e, 0xc0, 0x67, 0x3d, 0x48, 0x16, 0x3f, 0x3c, 0x4b, 0x76, 0x4e, 0x3d,
  0x0c, 0x97, 0xfd, 0xbd, 0x5b, 0xd4, 0x83, 0x3d, 0x95, 0x98, 0xce, 0x3c,
  0x76, 0x5a, 0x42, 0xbd, 0x63, 0xbb, 0x4d, 0x3d, 0xce, 0x14, 0xdc, 0xbd,
  0xc2, 0x59, 0xd7, 0xbc, 0x92, 0x0c, 0x88, 0x3b, 0x31, 0x64, 0x9a, 0x3c,
  0xc3, 0x22, 0x0a, 0xbe, 0xa2, 0xea, 0xa1, 0xbd, 0x57, 0xcc, 0xcd, 0xbd,
  0xf8, 0x6c, 0x29, 0x3d, 0x43, 0xd2, 0x97, 0xbc, 0x47, 0x08, 0xb8, 0x3d,
  0xe5, 0x18, 0xd2, 0x3d, 0x96, 0x23, 0x72, 0x3d, 0xd5, 0x62, 0xce, 0x3c,
  0x0a, 0x8b, 0xb7, 0x3d, 0x1d, 0xd9, 0x93, 0xbd, 0x13, 0x92, 0x12, 0xbb,
  0xd9, 0x3d, 0xa8, 0xbd, 0x4b, 0x2f, 0x24, 0x3b, 0x54, 0xc6, 0xb3, 0xba,
  0x1e, 0xfa, 0x15, 0x3c, 0x20, 0xd8, 0x4a, 0xbd, 0xde, 0xb6, 0xb5, 0xbd,
  0xd3, 0x29, 0x96, 0x3a, 0xbd, 0x66, 0x1a, 0xbe, 0x7c, 0x4d, 0x22, 0xbe,
  0x64, 0x98, 0xe6, 0x3c, 0x11, 0x18, 0xe4, 0xbd, 0x46, 0x52, 0x26, 0xbd,
  0xa0, 0x45, 0xb7, 0x3c, 0x4d, 0x04, 0x74, 0x3d, 0x16, 0x7b, 0x66, 0xbd,
  0x75, 0x40, 0xb6, 0x3d, 0xed, 0x32, 0xbf, 0xbd, 0x40, 0xea, 0x33, 0x3c,
  0x45, 0x3c, 0x88, 0x3c, 0x48, 0x06, 0x84, 0x3c, 0x62, 0x48, 0x96, 0x3d,
  0x61, 0x88, 0x9a, 0x3d, 0x67, 0x12, 0xcf, 0xbd, 0xe8, 0x57, 0xae, 0x3b,
  0x02, 0x40, 0x9d, 0x3d, 0x46, 0x90, 0x80, 0x3d, 0xfb, 0x86, 0x50, 0x3d,
  0x93, 0xd1, 0xe0, 0xbc, 0xb0, 0xee, 0x3e, 0x3d, 0x95, 0x10, 0x55, 0x3c,
  0x78, 0x42, 0x0a, 0xbe, 0x5d, 0x03, 0x24, 0xbe, 0x4c, 0x02, 0x57, 0x3d,
  0x43, 0x09, 0x84, 0xbc, 0xd2, 0xb0, 0x2b, 0xbd, 0x4c, 0x3e, 0xbe, 0xbd,
  0x5c, 0xff, 0x34, 0xbd, 0x63, 0x7d, 0x93, 0xbd, 0xcc, 0x34, 0xd3, 0x3d,
  0xd4, 0xcd, 0x10, 0xbe, 0x74, 0xe1, 0x26, 0xbd, 0xf1, 0x7d, 0xa2, 0x3c,
  0x81, 0x7d, 0xd5, 0x3d, 0xc9, 0x0f, 0xf1, 0x3c, 0x10, 0x84, 0xc3, 0xbd,
  0xee, 0xd5, 0x63, 0xbd, 0xb9, 0xa3, 0x90, 0xbd, 0xc3, 0xd5, 0x81, 0x3d,
  0xfe, 0xf4, 0x94, 0x3d, 0xc9, 0xe0, 0xc7, 0xbd, 0x9b, 0xb7, 0x88, 0xbb,
  0x74, 0x5b, 0xe1, 0xbb, 0x89, 0x3a, 0x52, 0xbd, 0x5a, 0x58, 0xe5, 0x3d,
  0xb8, 0x60, 0x0a, 0xbd, 0x58, 0x8d, 0xc4, 0xbc, 0x94, 0x51, 0x3f, 0x3d,
  0x27, 0x42, 0x57, 0xba, 0x6d, 0xf6, 0x85, 0x3d, 0x57, 0xc7, 0x02, 0xbe,
  0xb3, 0x3e, 0x06, 0xbd, 0x0f, 0x00, 0x2d, 0x3d, 0x51, 0x1a, 0x84, 0xbd,
  0xc8, 0xc4, 0xa1, 0xbd, 0x6b, 0xaf, 0x86, 0x3c, 0xfc, 0x7e, 0xeb, 0x3c,
  0x13, 0x71, 0xc7, 0xbd, 0x19, 0x13, 0x81, 0xbc, 0xb0, 0x85, 0xbf, 0x3d,
  0x56, 0x89, 0x39, 0x3d, 0x90, 0x70, 0x81, 0x3c, 0x40, 0x96, 0xc7, 0xbc,
  0x31, 0xaa, 0xc5, 0xbd, 0x1c, 0x40, 0xa3, 0xbd, 0x37, 0xd9, 0xa7, 0xbd,
  0xa9, 0xc8, 0x93, 0x3d, 0x5e, 0x3a, 0xae, 0x3c, 0xc6, 0xde, 0xbf, 0xbd,
  0x74, 0xb4, 0x5e, 0x3d, 0xa6, 0x44, 0xff, 0xbd, 0x8d, 0x9b, 0x17, 0xbe,
  0xc8, 0xf6, 0x99, 0xbc, 0x99, 0xfc, 0x01, 0xbe, 0xc8, 0x45, 0xf9, 0xbb,
  0x3e, 0x52, 0xc7, 0xbd, 0x4f, 0x38, 0xdb, 0xbd, 0x57, 0x18, 0x39, 0x3d,
  0x31, 0xfa, 0x29, 0x3d, 0x15, 0x39, 0xa7, 0xbd, 0xf4, 0xab, 0xdf, 0x3d,
  0x8a, 0xa1, 0xca, 0x3d, 0xa6, 0xa8, 0xd9, 0xbd, 0x43, 0x8a, 0x2e, 0xbd,
  0x59, 0xea, 0x13, 0x3d, 0xa0, 0x1a, 0x1b, 0xbd, 0x3b, 0x82, 0x08, 0xbd,
  0xf5, 0x3d, 0x04, 0xbe, 0xd1, 0xdd, 0x2b, 0x3d, 0xfc, 0xa0, 0x36, 0x3d,
  0xc5, 0x2f, 0x4f, 0xba, 0x71, 0xe4, 0xa1, 0x3d, 0x60, 0x74, 0xa9, 0x3c,
  0xf0, 0xb6, 0x8b, 0xbc, 0x98, 0xaf, 0xcf, 0x3d, 0xdf, 0xea, 0xf4, 0xbd,
  0x86, 0x0a, 0x75, 0xbb, 0x89, 0xfe, 0xda, 0x3c, 0xcf, 0xf7, 0x99, 0xbd,
  0x2a, 0x52, 0x60, 0xbd, 0xcd, 0xcd, 0x66, 0x3c, 0x7c, 0xe1, 0x66, 0x3b,
  0xdb, 0xa9, 0x3c, 0x3d, 0x14, 0x63, 0x15, 0xbe, 0x80, 0x57, 0x89, 0x3d,
  0x81, 0xe5, 0x1a, 0xbd, 0xbf, 0x44, 0x61, 0xbd, 0x7f, 0x8a, 0x8f, 0x3d,
  0xa4, 0x3c, 0x01, 0xbe, 0x35, 0x2e, 0x90, 0x3d, 0xee, 0xd4, 0xa4, 0xbd,
  0x1a, 0x45, 0x0f, 0xbe, 0xa3, 0x85, 0x8c, 0xbd, 0xee, 0xf1, 0xce, 0xbd,
  0x4b, 0x62, 0x1a, 0x3d, 0x75, 0x9b, 0xd9, 0xbd, 0x67, 0x7a, 0x85, 0x3b,
  0x17, 0xd0, 0x69, 0xbd, 0xf1, 0x0f, 0xee, 0xbd, 0x50, 0xbe, 0xc3, 0xbd,
  0x26, 0xed, 0xf6, 0xbd, 0xe7, 0x1e, 0xaf, 0xbd, 0x07, 0x59, 0xc7, 0xbd,
  0xc7, 0x57, 0xd0, 0xbd, 0xdf, 0x6c, 0x68, 0xbc, 0x6f, 0x7b, 0xb4, 0xbd,
  0x3e, 0xe4, 0x72, 0x3c, 0x73, 0xf6, 0x85, 0xbc, 0x0f, 0x3c, 0x9d, 0xbd,
  0x47, 0xef, 0x8f, 0xbb, 0x4c, 0x77, 0xe0, 0xbd, 0x3c, 0x80, 0x01, 0xbe,
  0xcd, 0xf5, 0x98, 0xbd, 0x10, 0x39, 0x46, 0xbd, 0x60, 0x52, 0x83, 0xbd,
  0xdb, 0x6b, 0x27, 0x3c, 0x2f, 0xd9, 0x75, 0x3c, 0x8e, 0x7f, 0x20, 0x3d,
  0x78, 0xd5, 0x84, 0xbc, 0x35, 0xb7, 0x71, 0xbd, 0x2d, 0xf2, 0xe9, 0xbc,
  0xb4, 0xac, 0xd5, 0xbd, 0xe5, 0xd6, 0x3c, 0x3d, 0x64, 0x8a, 0x6e, 0x3d,
  0x13, 0xca, 0xc0, 0x3c, 0x13, 0x51, 0x67, 0x39, 0xb5, 0x06, 0x98, 0xbd,
  0xb6, 0xbd, 0x50, 0xbd, 0xd7, 0x6d, 0x45, 0x3d, 0xa8, 0x42, 0x6c, 0x3c,
  0x62, 0xae, 0x2a, 0x3d, 0x94, 0xa6, 0x95, 0x3c, 0x4d, 0x6f, 0x4d, 0xbd,
  0x55, 0xfd, 0xbe, 0x3a, 0xa7, 0x79, 0x76, 0x3d, 0x0b, 0x62, 0xd4, 0xbd,
  0x9d, 0xf2, 0x1f, 0x3d, 0xc6, 0x2a, 0xd1, 0xbc, 0x26, 0xef, 0x7e, 0xbd,
  0xc3, 0x65, 0xdc, 0xbd, 0x5e, 0x60, 0x79, 0xbc, 0x69, 0x4a, 0xc2, 0xbd,
  0xa1, 0xa6, 0x37, 0xbc, 0x67, 0xdc, 0x36, 0x3d, 0x9a, 0x97, 0xbd, 0xbd,
  0x53, 0xff, 0xc5, 0x3d, 0xd2, 0xda, 0xa9, 0xbd, 0xf5, 0x4d, 0x9d, 0xbc,
  0x07, 0x94, 0xbd, 0x3d, 0x6d, 0xb2, 0x3c, 0xbd, 0xba, 0x8f, 0xfd, 0xbd,
  0x86, 0x8b, 0x3b, 0x3d, 0xee, 0x46, 0xa7, 0xbd, 0x19, 0x39, 0xc2, 0x3d,
  0x09, 0xb9, 0xac, 0xbc, 0xa8, 0x35, 0x6d, 0x3b, 0x62, 0x72, 0x93, 0x3d,
  0x96, 0xc5, 0x04, 0xbe, 0x38, 0x0b, 0x64, 0xbd, 0x30, 0xf1, 0x9c, 0x3c,
  0x8d, 0x03, 0x9a, 0x3d, 0x0a, 0xbe, 0x0d, 0x3c, 0xb7, 0xd7, 0xb3, 0xbd,
  0xe4, 0x25, 0xeb, 0xbd, 0xb3, 0xc7, 0xe3, 0xbd, 0x6e, 0xdc, 0x4e, 0xbc,
  0x1b, 0x48, 0x73, 0x3d, 0xf1, 0x48, 0x4d, 0xbd, 0x53, 0x96, 0x0c, 0xbd,
  0xf0, 0xdd, 0x40, 0x3d, 0xe6, 0x1c, 0x89, 0xbc, 0xf0, 0x8c, 0xc4, 0xbd,
  0x50, 0xcd, 0xc2, 0xbd, 0x1d, 0xb4, 0x45, 0x3d, 0x1f, 0xa6, 0x0b, 0xbe,
  0x28, 0xc9, 0x2a, 0xbd, 0x2d, 0x6d, 0x5c, 0xbd, 0xde, 0xe4, 0x86, 0x3d,
  0xff, 0x07, 0x84, 0x3d, 0x6b, 0x29, 0x86, 0x3c, 0x2d, 0x2f, 0x8c, 0x3d,
  0xc8, 0xc2, 0x61, 0x3d, 0x5a, 0x18, 0xca, 0xbd, 0x2a, 0xb2, 0x64, 0x3d,
  0x18, 0x69, 0xc3, 0x3d, 0x36, 0xfe, 0xb7, 0xbd, 0xd1, 0xd8, 0x8e, 0x3d,
  0x34, 0x09, 0xff, 0xbd, 0xbf, 0x79, 0x9a, 0xbd, 0x18, 0x91, 0xf3, 0xbd,
  0x4a, 0x2c, 0xa5, 0x3d, 0x47, 0x97, 0xb1, 0xbd, 0xd0, 0x42, 0x42, 0x3a,
  0xde, 0xb9, 0xcb, 0xbd, 0x50, 0x74, 0x98, 0x3d, 0xc2, 0x75, 0x01, 0xbe,
  0xe5, 0xe8, 0x94, 0x3d, 0x41, 0x7a, 0x9b, 0x3d, 0x28, 0x4c, 0x6b, 0xbc,
  0xb7, 0x15, 0xbb, 0xbc, 0x34, 0x7a, 0x8e, 0x3d, 0x88, 0xfe, 0x8f, 0x3d,
  0xa4, 0x87, 0x8d, 0xbd, 0xf5, 0x3c, 0xb5, 0x3d, 0x08, 0x53, 0xc8, 0x3d,
  0x17, 0x9a, 0x1e, 0xbe, 0x19, 0xf7, 0x74, 0x3d, 0xea, 0x03, 0x9b, 0xbd,
  0x65, 0x34, 0xd3, 0xbd, 0x5e, 0x4b, 0x46, 0xbd, 0x61, 0x7e, 0xc2, 0x3d,
  0xdd, 0xa8, 0x79, 0x3c, 0x17, 0x16, 0x9d, 0x3c, 0xcc, 0x27, 0x24, 0x3b,
  0xb6, 0x84, 0x55, 0x3d, 0xf6, 0x3c, 0x37, 0x3d, 0x43, 0xfa, 0x08, 0x3d,
  0x29, 0x45, 0x70, 0x3d, 0x1d, 0xab, 0xe0, 0xbd, 0xfd, 0x7d, 0xcb, 0xbd,
  0x4b, 0x46, 0x0b, 0xbc, 0xa1, 0x1d, 0x1d, 0xbd, 0x17, 0xf8, 0xe5, 0xbd,
  0xf5, 0xee, 0x44, 0xbd, 0x0c, 0xd5, 0x08, 0xbe, 0x08, 0xa3, 0xb9, 0x3c,
  0xe3, 0xed, 0x8d, 0xbd, 0x0b, 0xcb, 0x24, 0xbd, 0x89, 0xf1, 0xae, 0xbd,
  0xff, 0xbe, 0x7a, 0xbd, 0x12, 0x11, 0x67, 0xbd, 0x98, 0xda, 0xc7, 0x3c,
  0x36, 0xfb, 0xe3, 0xbd, 0x1e, 0xdd, 0xcd, 0x3c, 0x44, 0x8d, 0xd3, 0xbd,
  0x2e, 0xeb, 0x56, 0xbd, 0xea, 0xb8, 0x88, 0x3b, 0x21, 0x15, 0xb3, 0x3d,
  0x4a, 0x2c, 0x02, 0xbe, 0x6e, 0x99, 0x30, 0x3c, 0xcb, 0x24, 0xa9, 0xbd,
  0x30, 0x16, 0x07, 0xbe, 0xe8, 0x4e, 0xc5, 0xbd, 0xc2, 0x39, 0x71, 0x3d,
  0x4b, 0xd0, 0xa5, 0xbd, 0x16, 0xce, 0x4e, 0xbd, 0xa0, 0x99, 0xfa, 0xbd,
  0xb3, 0x6d, 0xbf, 0x3c, 0x62, 0xf9, 0x87, 0xbd, 0x25, 0x00, 0x6c, 0x3d,
  0xa8, 0x8a, 0xc2, 0x3d, 0x9a, 0x48, 0x8d, 0x3d, 0x24, 0x66, 0xa3, 0x3c,
  0x71, 0x19, 0x77, 0xbc, 0xe5, 0x0c, 0xdf, 0xbd, 0x3e, 0x90, 0x8a, 0x3d,
  0x17, 0x80, 0x39, 0x3b, 0xb8, 0xdc, 0x81, 0x3d, 0x4c, 0x83, 0x5c, 0xbc,
  0x7f, 0xa6, 0xef, 0x3d, 0x4b, 0x77, 0x9c, 0xbd, 0x4c, 0x82, 0x9e, 0xbd,
  0x8d, 0x54, 0x05, 0xbc, 0x25, 0x04, 0xb2, 0x3d, 0x47, 0xce, 0x0f, 0xbe,
  0x37, 0xde, 0x59, 0xbd, 0xc0, 0x49, 0x86, 0x3d, 0x19, 0x7a, 0x15, 0xbe,
  0x1f, 0xea, 0x7c, 0x3c, 0xb3, 0xab, 0xc9, 0xbd, 0xad, 0x46, 0x62, 0x3d,
  0x63, 0x06, 0x1b, 0xbe, 0xa3, 0xc6, 0x8f, 0xbc, 0x70, 0x44, 0x2a, 0x3d,
  0x8e, 0x51, 0x50, 0xbd, 0x5f, 0xa6, 0x5f, 0xbd, 0xcc, 0x52, 0x31, 0x3d,
  0x8e, 0x69, 0xda, 0xbd, 0x9e, 0xb3, 0x0b, 0xbe, 0xd7, 0x06, 0x2e, 0x3a,
  0x65, 0x1b, 0xcb, 0x3c, 0xa9, 0x4b, 0x25, 0x3d, 0xc0, 0x9b, 0x2c, 0xbd,
  0xf7, 0x05, 0xeb, 0x3c, 0x6a, 0x57, 0xdf, 0xbd, 0x68, 0x1b, 0xb5, 0xbd,
  0x36, 0xf8, 0xc1, 0xbd, 0xf0, 0x76, 0x35, 0x3d, 0x0a, 0x65, 0xbd, 0xbd,
  0x2f, 0x12, 0xc2, 0x3c, 0x0d, 0x3e, 0x00, 0xbe, 0xfb, 0x94, 0x88, 0xbd,
  0x49, 0x39, 0x9f, 0xbd, 0x55, 0x73, 0x0a, 0xbe, 0xbd, 0x55, 0x12, 0x3d,
  0xf0, 0x48, 0xcb, 0xbd, 0x62, 0xcb, 0xb4, 0x3d, 0x20, 0x89, 0x96, 0xbc,
  0x77, 0xd3, 0xaf, 0x3d, 0x2f, 0x12, 0x95, 0x3c, 0x24, 0x1e, 0xfe, 0xbd,
  0x63, 0x17, 0x5d, 0x3d, 0x90, 0xe9, 0x6b, 0xbd, 0x95, 0x72, 0x67, 0xbd,
  0x22, 0x81, 0x2b, 0xbd, 0xdf, 0xbe, 0xd2, 0xbb, 0xcc, 0x1e, 0xf8, 0x3b,
  0x40, 0xaa, 0xac, 0xbd, 0x34, 0xdb, 0xd0, 0xbd, 0x88, 0xde, 0xc4, 0xbd,
  0xf4, 0xe0, 0x2e, 0xbe, 0xa4, 0x25, 0xe4, 0xbd, 0x00, 0x99, 0x5f, 0xbd,
  0xb9, 0xea, 0x84, 0xbc, 0x8a, 0x3f, 0x60, 0x3d, 0xea, 0x3c, 0x69, 0x3d,
  0xd1, 0x45, 0xeb, 0xbd, 0xa9, 0xe4, 0x07, 0xbe, 0xbe, 0xb3, 0x53, 0xbd,
  0x4d, 0xe2, 0x8f, 0xbd, 0xb0, 0x21, 0x79, 0xbd, 0x02, 0x72, 0xbf, 0xbd,
  0xef, 0x13, 0xed, 0xbb, 0xeb, 0x52, 0x49, 0x3d, 0x4f, 0xfd, 0xf0, 0xbb,
  0xf6, 0x6d, 0x12, 0xbe, 0xb8, 0xd9, 0x37, 0xbd, 0x84, 0x90, 0x4c, 0xbd,
  0x17, 0x00, 0xcc, 0x3c, 0xf2, 0xeb, 0x1b, 0xbe, 0x99, 0x75, 0x1e, 0x3c,
  0x6c, 0x79, 0x90, 0xbd, 0x81, 0x0e, 0xb7, 0xbd, 0xa7, 0x1a, 0x4d, 0x3d,
  0x41, 0xcc, 0x6b, 0xbd, 0x35, 0x7e, 0x50, 0xbd, 0xfd, 0xa5, 0x78, 0xbd,
  0x64, 0x8e, 0xa4, 0xbd, 0xb8, 0x7d, 0xe1, 0xbd, 0x8b, 0x94, 0xc8, 0xbd,
  0x6a, 0x09, 0x25, 0xbe, 0xa4, 0x2d, 0x0b, 0x3d, 0x30, 0x20, 0x0c, 0x3d,
  0x3f, 0xde, 0x95, 0x3d, 0xa3, 0xa7, 0x7f, 0xbd, 0x5d, 0x59, 0x20, 0xbe,
  0x25, 0x51, 0x8d, 0xbc, 0xe4, 0xb8, 0x4e, 0x3d, 0x60, 0x75, 0xd6, 0xbd,
  0x64, 0x33, 0xde, 0x3c, 0xde, 0xdd, 0x97, 0x3c, 0xb8, 0xf3, 0x1b, 0xbe,
  0x37, 0x10, 0x7f, 0x3d, 0x68, 0x27, 0xe7, 0x3c, 0xd7, 0x86, 0xc5, 0x3c,
  0x13, 0x7a, 0xd4, 0xbc, 0x27, 0xd2, 0xf2, 0xbd, 0xed, 0x9d, 0xf2, 0x3c,
  0x53, 0xef, 0xb5, 0xbd, 0xf4, 0x1d, 0x7d, 0x3d, 0x12, 0x55, 0x09, 0x3c,
  0xae, 0x99, 0x1b, 0xbe, 0xff, 0x6f, 0x04, 0xbe, 0xfb, 0x0c, 0xcb, 0xbd,
  0x48, 0x9b, 0x02, 0xbd, 0x06, 0x9b, 0x8c, 0xbd, 0xd6, 0x10, 0x25, 0x3d,
  0x0e, 0x90, 0xb0, 0xbc, 0x3b, 0xb9, 0x19, 0x3d, 0xa8, 0x67, 0xe3, 0x3c,
  0x35, 0x9b, 0x3e, 0xbd, 0xcf, 0xb5, 0xc7, 0xbd, 0xcf, 0x30, 0x23, 0xbe,
  0xdc, 0x10, 0xe6, 0xbd, 0x47, 0xe9, 0x7e, 0xbd, 0x9b, 0xdc, 0x49, 0xbd,
  0xb9, 0x0f, 0x25, 0xbe, 0xdb, 0x64, 0x41, 0xbd, 0x70, 0x37, 0x54, 0xbd,
  0xdf, 0x16, 0xf8, 0xbd, 0x96, 0xa4, 0x8c, 0xbc, 0xda, 0xe0, 0x04, 0xbe,
  0xa1, 0x9a, 0xd3, 0x3c, 0x8a, 0x06, 0xb3, 0xbc, 0x04, 0x13, 0x5f, 0xbd,
  0x28, 0xe1, 0x20, 0xbe, 0x87, 0xd2, 0x05, 0x3d, 0x66, 0x16, 0xfd, 0xbd,
  0x28, 0xaf, 0x20, 0xbe, 0x4f, 0x92, 0xd7, 0x3c, 0xd2, 0xac, 0xed, 0xbd,
  0x31, 0xbf, 0xca, 0xbd, 0x2d, 0x93, 0x9e, 0xbc, 0xbc, 0x4d, 0x2b, 0xbd,
  0xfb, 0x2a, 0x7a, 0x3d, 0x42, 0x8b, 0xc8, 0xbd, 0x6c, 0xe9, 0xa4, 0xbd,
  0x1f, 0x89, 0x0b, 0xbd, 0x38, 0xd9, 0x73, 0x3d, 0xe6, 0xba, 0x95, 0x3d,
  0x41, 0xae, 0x80, 0x3d, 0x1a, 0x0d, 0x81, 0xbc, 0x3d, 0x80, 0x94, 0xbd,
  0x88, 0x26, 0x91, 0x3d, 0xce, 0xfa, 0x01, 0xbe, 0x0e, 0x95, 0x01, 0x3d,
  0xe4, 0x3a, 0x26, 0xbe, 0x9f, 0x09, 0xa6, 0xbd, 0x6e, 0x9d, 0xfa, 0xbc,
  0xbe, 0xa2, 0xa9, 0x3d, 0x29, 0xc3, 0x13, 0xbe, 0x43, 0x5d, 0x08, 0x3d,
  0x04, 0xb9, 0xb4, 0x3c, 0x18, 0x6a, 0x0b, 0xbe, 0xe3, 0xd1, 0x13, 0xbd,
  0xea, 0x61, 0xaf, 0x3d, 0x69, 0xb4, 0x55, 0x3d, 0xb4, 0xf7, 0xa8, 0xbd,
  0x85, 0xe6, 0x34, 0x3d, 0xaf, 0xe9, 0x00, 0x3e, 0x37, 0x2c, 0xfa, 0x3c,
  0x8f, 0x2e, 0x88, 0x3d, 0xca, 0x04, 0x01, 0x3d, 0xba, 0x09, 0x21, 0x3d,
  0x0a, 0x44, 0xa3, 0xbd, 0x83, 0xfd, 0x1c, 0xbe, 0x1e, 0x98, 0x6b, 0x3d,
  0x9a, 0xdd, 0x16, 0x3c, 0x9e, 0x04, 0x05, 0xbe, 0xd0, 0x2d, 0x8c, 0xbd,
  0x47, 0x77, 0x48, 0xbd, 0xf9, 0xec, 0x14, 0xbe, 0x90, 0xd5, 0x88, 0x3d,
  0x2e, 0x65, 0xd1, 0x3b, 0x8a, 0x25, 0xee, 0xbd, 0x64, 0x47, 0x13, 0x3d,
  0x7c, 0x77, 0x25, 0x3d, 0xa3, 0xc2, 0x84, 0x3d, 0xb3, 0x94, 0xbe, 0xbd,
  0xd2, 0x1c, 0x36, 0x3d, 0x97, 0x12, 0x29, 0x3d, 0x21, 0xbf, 0x54, 0xbd,
  0x9f, 0xd8, 0x2c, 0xbc, 0x4e, 0xa9, 0x02, 0xbe, 0xbe, 0x1f, 0x99, 0x3d,
  0x91, 0xdf, 0xea, 0xbd, 0x25, 0x3f, 0xae, 0xbd, 0x46, 0x7b, 0x0b, 0x3d,
  0xcf, 0xdb, 0xd9, 0xbb, 0xf6, 0x93, 0x06, 0xbd, 0x1f, 0x88, 0xd2, 0xbd,
  0xd1, 0x3a, 0x78, 0x3d, 0xb0, 0xfa, 0xdf, 0xbd, 0x18, 0x68, 0xa6, 0x3c,
  0x4b, 0x72, 0x31, 0xbe, 0x9b, 0xff, 0x26, 0xbe, 0x28, 0xf4, 0x1e, 0x3d,
  0x76, 0x02, 0xb9, 0xbc, 0x8e, 0x0e, 0x8d, 0x3d, 0x01, 0xae, 0xdc, 0xbd,
  0x4a, 0x20, 0x9b, 0xbd, 0x81, 0x8e, 0xd9, 0xbd, 0x60, 0xcf, 0x24, 0xbe,
  0xd9, 0x6f, 0xc5, 0xbd, 0x63, 0xde, 0xac, 0x3d, 0x98, 0x7a, 0xf0, 0x3a,
  0x6c, 0x25, 0x00, 0xbe, 0xbf, 0x36, 0x70, 0xbc, 0xec, 0x0b, 0x76, 0x3c,
  0x18, 0x1b, 0xe1, 0xbd, 0x07, 0xf9, 0x83, 0xbd, 0xf5, 0x6f, 0x9c, 0x3d,
  0xf4, 0x76, 0x5c, 0xbc, 0xab, 0x1c, 0xea, 0xbd, 0x89, 0xd0, 0xd8, 0xbd,
  0xc0, 0xd7, 0xb4, 0xbd, 0x53, 0xfc, 0x1e, 0xbe, 0xa2, 0x0d, 0x84, 0x3c,
  0xf1, 0x48, 0x37, 0x3d, 0x1f, 0xb6, 0x8f, 0xbd, 0xfb, 0x0c, 0x0a, 0xbe,
  0x49, 0x21, 0x1b, 0xbe, 0xd0, 0xa5, 0xd4, 0xbd, 0xe0, 0xbb, 0x44, 0xbd,
  0xd9, 0x0f, 0x83, 0xbd, 0xdc, 0xdf, 0x81, 0xbc, 0x9d, 0xe7, 0x8b, 0xbb,
  0xb8, 0x6e, 0x5b, 0xbb, 0xa0, 0x6a, 0x42, 0xbd, 0x0b, 0xb2, 0x93, 0x3d,
  0xd9, 0x17, 0xd3, 0xbd, 0x8c, 0xd3, 0x06, 0xbe, 0x45, 0x7e, 0x2c, 0xbd,
  0xf4, 0x95, 0xc4, 0x3c, 0xd3, 0x81, 0x00, 0xbe, 0x7d, 0x99, 0xde, 0xbd,
  0x13, 0xda, 0x2b, 0xbc, 0xa6, 0x90, 0xb8, 0xbd, 0xed, 0x16, 0x49, 0xbd,
  0xbd, 0xeb, 0x64, 0xbb, 0x76, 0x8c, 0x4e, 0x3d, 0x4b, 0xa6, 0x8e, 0x3d,
  0xab, 0x66, 0xfe, 0xbc, 0xb7, 0x3e, 0x35, 0xbe, 0xa1, 0x0a, 0x90, 0x3d,
  0x7a, 0xc8, 0xdf, 0xbd, 0x46, 0xf7, 0x82, 0xbd, 0x6e, 0x20, 0xaf, 0xbd,
  0xdd, 0x48, 0x74, 0x3c, 0x75, 0x01, 0x82, 0x3d, 0x92, 0xe8, 0x41, 0x3d,
  0x47, 0xdc, 0x10, 0x3d, 0x6c, 0xcf, 0x67, 0xbc, 0x53, 0xe6, 0xe7, 0xbd,
  0xd0, 0xcf, 0xab, 0xba, 0xec, 0x0a, 0xee, 0xbd, 0x03, 0xfd, 0x65, 0x3c,
  0xf9, 0xb8, 0x09, 0xbe, 0xd6, 0x3d, 0xc1, 0xbb, 0xd9, 0xe1, 0xe7, 0xbd,
  0x71, 0x51, 0x9d, 0xbd, 0x1b, 0x2f, 0xe5, 0xbd, 0x4a, 0xf8, 0x1f, 0x3d,
  0x80, 0x1f, 0x77, 0xbd, 0xe9, 0xd6, 0xb5, 0xbb, 0x37, 0xcc, 0xb7, 0xbd,
  0x66, 0x85, 0x64, 0x3d, 0xd9, 0x9e, 0x6f, 0xbd, 0xab, 0x35, 0x7a, 0xbd,
  0xec, 0x45, 0x9a, 0x3c, 0xfe, 0xb4, 0x00, 0xbe, 0x61, 0x28, 0xd3, 0xbd,
  0x46, 0xf3, 0xe5, 0x3c, 0x92, 0xd5, 0x50, 0xbd, 0xf4, 0xd0, 0x89, 0xbd,
  0x5a, 0x74, 0x69, 0x3c, 0x5a, 0x07, 0xcd, 0xbd, 0x57, 0x35, 0x28, 0xbd,
  0xf3, 0x4d, 0x75, 0x3c, 0xd8, 0x5a, 0x12, 0xbd, 0x95, 0x0c, 0xc1, 0xbc,
  0x6b, 0xc8, 0xfc, 0xbd, 0x82, 0xa4, 0xa0, 0xbd, 0x42, 0xb9, 0xfd, 0xbd,
  0xdc, 0xbb, 0x85, 0x3d, 0xdb, 0xdb, 0x97, 0x3d, 0x42, 0xa4, 0xd2, 0x3c,
  0x5e, 0x10, 0xa4, 0xbb, 0x1f, 0x44, 0x05, 0xbe, 0xa9, 0x16, 0xf6, 0xbd,
  0x98, 0xd9, 0x0a, 0x3d, 0xb6, 0x84, 0x5e, 0x3d, 0x9c, 0xe1, 0x39, 0x3d,
  0xf6, 0x7c, 0xa3, 0x3d, 0x05, 0x93, 0x09, 0xbd, 0x52, 0xf2, 0x17, 0xbe,
  0x3f, 0xd5, 0xb2, 0xbd, 0x83, 0xf8, 0x29, 0x3d, 0xd5, 0xd3, 0x7a, 0xbd,
  0x5e, 0xe9, 0x99, 0x3d, 0x15, 0x45, 0x5b, 0xbd, 0xae, 0xad, 0x37, 0xbd,
  0xae, 0xcc, 0x86, 0x3d, 0x97, 0xcc, 0x5d, 0xbd, 0xb8, 0xf8, 0x08, 0xbe,
  0x2e, 0x10, 0xfa, 0x3b, 0x5b, 0x04, 0xc9, 0x3c, 0x9d, 0x8c, 0x09, 0xbe,
  0x1a, 0xfc, 0xad, 0x3c, 0xf4, 0x68, 0x23, 0xbd, 0xa7, 0xff, 0xd6, 0x3d,
  0xdc, 0x52, 0xc7, 0x3d, 0xd1, 0x03, 0x13, 0xbe, 0xf5, 0x66, 0x3a, 0x3d,
  0xa6, 0x09, 0x2d, 0xbe, 0xd4, 0xa4, 0xd3, 0xbb, 0x08, 0x03, 0x37, 0x3d,
  0xd3, 0x79, 0x2e, 0xbd, 0x2c, 0x15, 0x34, 0x3d, 0x27, 0xc9, 0x21, 0xbe,
  0x36, 0xf8, 0x4d, 0x3d, 0xcf, 0xd5, 0xcb, 0xbb, 0x93, 0x5f, 0xbb, 0x3d,
  0x8a, 0x91, 0xa1, 0x3d, 0xde, 0xfc, 0xde, 0x3d, 0xcf, 0xc9, 0x72, 0x3d,
  0xd9, 0x42, 0xa2, 0xbd, 0x73, 0xa1, 0x6c, 0x3d, 0xfc, 0xcf, 0x58, 0xbd,
  0xee, 0xbb, 0x30, 0x39, 0xf6, 0xfd, 0x31, 0xbd, 0xf1, 0xb3, 0x07, 0x3e,
  0xdc, 0xcf, 0x3c, 0x3d, 0x47, 0x9f, 0xc8, 0xba, 0x60, 0xf4, 0x9d, 0x3d,
  0x75, 0x99, 0xa0, 0x3d, 0x4e, 0x3c, 0x80, 0x3d, 0x86, 0xd0, 0x97, 0x3d,
  0xa0, 0x21, 0x17, 0xbe, 0xde, 0x90, 0x84, 0xbc, 0x44, 0xe2, 0x1f, 0xbd,
  0x47, 0xd6, 0xa8, 0x3d, 0x81, 0x6e, 0xa7, 0x3d, 0x42, 0x95, 0xc2, 0x3d,
  0xaa, 0xb0, 0x60, 0xbc, 0x63, 0xf8, 0x03, 0xbd, 0xce, 0x4c, 0xb0, 0xbd,
  0x95, 0x5f, 0xe4, 0x3c, 0x59, 0x39, 0x0f, 0x3a, 0x7c, 0xff, 0x18, 0xbd,
  0x4b, 0x12, 0x33, 0xbd, 0x4c, 0xf1, 0x77, 0x3c, 0x43, 0x26, 0x4b, 0x3d,
  0x41, 0x61, 0x95, 0xbc, 0x25, 0x95, 0x81, 0xbd, 0x51, 0x0c, 0xd5, 0x3b,
  0xe1, 0x30, 0xc9, 0x3d, 0x73, 0x86, 0x7e, 0xbd, 0xc8, 0x67, 0x1b, 0xbd,
  0xc6, 0x40, 0x0c, 0xbe, 0xb2, 0x2f, 0x47, 0xbc, 0x08, 0x74, 0xa3, 0xbd,
  0xa2, 0xb5, 0xb1, 0xbd, 0x74, 0xdd, 0x3d, 0xbd, 0xb5, 0xa7, 0xef, 0xbd,
  0xea, 0x6d, 0x86, 0x3d, 0xd6, 0x93, 0xd4, 0xbd, 0xa8, 0x81, 0x39, 0xbd,
  0xb6, 0xf2, 0xbe, 0xbd, 0xd2, 0x3f, 0x09, 0x3d, 0x8f, 0x18, 0x45, 0xbd,
  0x5e, 0x7d, 0x04, 0xbd, 0x6a, 0xfa, 0xbb, 0x3d, 0xb5, 0x95, 0xb4, 0x3d,
  0x8f, 0x3f, 0xbd, 0xbc, 0x26, 0xe3, 0x3c, 0xbd, 0xcd, 0x50, 0xe5, 0x3d,
  0xce, 0x4e, 0x09, 0x3d, 0xb7, 0x9e, 0xf6, 0xbc, 0x8c, 0x2f, 0x32, 0xbd,
  0x77, 0x07, 0xe8, 0xbd, 0x9f, 0x72, 0x72, 0x3b, 0x50, 0xea, 0xda, 0xbd,
  0x13, 0x6f, 0x20, 0x3d, 0x83, 0x28, 0x7a, 0xbd, 0x9a, 0xa9, 0x68, 0xbc,
  0x6a, 0x34, 0xee, 0xbd, 0xd6, 0x55, 0x43, 0xbc, 0x4b, 0x5b, 0xd7, 0xbc,
  0xf9, 0x9b, 0xf2, 0xbd, 0x9f, 0x83, 0x94, 0xbd, 0xa0, 0x43, 0x9b, 0xbd,
  0x9a, 0x55, 0x74, 0xbd, 0xce, 0x86, 0x17, 0xbc, 0x8a, 0x84, 0xe1, 0x3c,
  0x59, 0x3a, 0x18, 0xbd, 0x7b, 0x2b, 0x1d, 0xbe, 0x51, 0x4a, 0x1e, 0xbd,
  0x2d, 0x06, 0xa8, 0xbd, 0xb7, 0x59, 0x7e, 0x3c, 0xc2, 0x7e, 0x00, 0xbe,
  0xe9, 0x1e, 0x00, 0x3d, 0x30, 0xb9, 0x21, 0x3d, 0xe4, 0x6e, 0x95, 0xbd,
  0x53, 0x71, 0xc4, 0x3d, 0x82, 0x94, 0xc2, 0xbd, 0x72, 0xbc, 0x43, 0x3d,
  0x1d, 0xd1, 0x2f, 0xbd, 0x8f, 0x8d, 0x40, 0xbd, 0x3c, 0x1e, 0x2b, 0xbd,
  0xaf, 0xfb, 0x92, 0xbc, 0x40, 0xf6, 0x89, 0xbc, 0x17, 0x80, 0x14, 0x3c,
  0x46, 0x8b, 0x95, 0x3c, 0x4b, 0x0f, 0x5b, 0x3c, 0x59, 0x5f, 0x15, 0x3e,
  0xf9, 0xa0, 0x96, 0xbc, 0xbe, 0x08, 0x9d, 0xbd, 0x91, 0x87, 0xb3, 0x3d,
  0x6d, 0x34, 0x99, 0x3d, 0xb3, 0xa6, 0xb2, 0x3b, 0x6a, 0x42, 0x78, 0xbc,
  0xfd, 0x4f, 0x46, 0x3d, 0x8e, 0xb7, 0xb6, 0x3d, 0xf5, 0xea, 0xd4, 0xbd,
  0x32, 0x10, 0xc8, 0xbd, 0xfa, 0x73, 0xdb, 0x3d, 0xa6, 0xfb, 0x0a, 0xbe,
  0x98, 0x83, 0x78, 0x3d, 0x4b, 0xad, 0x0f, 0xbd, 0xc0, 0xbf, 0xda, 0xbc,
  0x90, 0x0e, 0x7a, 0x3d, 0x37, 0xa6, 0xba, 0x3d, 0xfe, 0xa8, 0xd3, 0xbd,
  0x4e, 0x32, 0xf7, 0x3c, 0x54, 0xb6, 0xdc, 0x3c, 0xfe, 0x53, 0xce, 0x3c,
  0x39, 0x15, 0x6c, 0xbc, 0xff, 0xeb, 0x09, 0xbe, 0x55, 0xc3, 0x0d, 0xbe,
  0x4a, 0x87, 0xe8, 0xbd, 0x9a, 0xa4, 0x09, 0xbe, 0xac, 0x7e, 0x4b, 0xbd,
  0x2d, 0x3f, 0xc1, 0x3d, 0x80, 0xef, 0x67, 0x3c, 0x59, 0xa3, 0xa0, 0x3d,
  0x72, 0x38, 0x12, 0xbd, 0xfd, 0x84, 0x30, 0x3c, 0x68, 0x56, 0xe6, 0x3d,
  0xa2, 0x49, 0x55, 0xbd, 0x6a, 0xf7, 0xd8, 0x3d, 0xb1, 0x51, 0xed, 0xbd,
  0x02, 0xce, 0x42, 0xbd, 0x99, 0x0a, 0x1f, 0xbd, 0xc6, 0x88, 0xa1, 0x3d,
  0x36, 0x58, 0x7a, 0x3d, 0x53, 0x2d, 0x97, 0xbd, 0x34, 0xb0, 0x1f, 0xbd,
  0xcc, 0xe3, 0xaf, 0xbc, 0xef, 0xec, 0xd2, 0xbd, 0x38, 0x66, 0xf6, 0x3d,
  0x82, 0xe4, 0xd9, 0x3d, 0x23, 0x55, 0x39, 0x3d, 0xd9, 0xd6, 0x55, 0xbd,
  0xfa, 0xf4, 0x6b, 0x3d, 0xc9, 0x1b, 0xa9, 0xbd, 0xf8, 0xcf, 0xc6, 0x3d,
  0x0b, 0xf2, 0x6a, 0x3d, 0xc3, 0xb4, 0x91, 0x3d, 0xe8, 0xbd, 0xde, 0x3d,
  0xfe, 0xff, 0x2b, 0xbe, 0xc7, 0x1a, 0x91, 0x3d, 0x95, 0xce, 0xf9, 0xbc,
  0xc5, 0xce, 0x7b, 0xbc, 0x48, 0xfd, 0xac, 0x3d, 0xbb, 0xc8, 0xc9, 0x3d,
  0xcf, 0x3c, 0xc6, 0x3d, 0x5a, 0xec, 0xec, 0xbd, 0xda, 0x7b, 0x04, 0xbd,
  0xfa, 0x96, 0xdb, 0x3c, 0xfb, 0x04, 0x8a, 0xbd, 0xa6, 0xf8, 0x91, 0xbd,
  0x1b, 0x1b, 0xc6, 0xbc, 0x5a, 0xd7, 0xb2, 0x3d, 0x7a, 0x21, 0xba, 0xbd,
  0x92, 0xf2, 0x38, 0xbd, 0x99, 0x2c, 0x07, 0xbe, 0xbc, 0xd7, 0xcd, 0xbc,
  0x8d, 0x48, 0x8a, 0xbc, 0xa0, 0x29, 0xe5, 0x3c, 0x50, 0x0f, 0x8c, 0xbc,
  0x10, 0x08, 0xe4, 0xbb, 0x44, 0xe8, 0xe5, 0xbd, 0xef, 0x14, 0x01, 0xbe,
  0xb6, 0x41, 0x04, 0xbe, 0xa5, 0x65, 0x8c, 0x3d, 0xd2, 0x07, 0xe1, 0xbc,
  0x7c, 0x81, 0x88, 0x3d, 0xcc, 0x6c, 0xe9, 0xbd, 0xb5, 0x68, 0x33, 0x3c,
  0x41, 0x4d, 0x03, 0xbe, 0xf8, 0xac, 0x0a, 0x3c, 0x26, 0xcb, 0xcb, 0x3a,
  0xf9, 0xf6, 0x26, 0xbe, 0x70, 0xb0, 0xe5, 0xbd, 0xe8, 0x1d, 0x08, 0xbe,
  0xfc, 0xf5, 0x04, 0xbe, 0x52, 0x14, 0xbb, 0xbc, 0x86, 0x27, 0xa7, 0x3c,
  0x5c, 0x3e, 0xfb, 0xbd, 0x4b, 0xe2, 0xbd, 0xbd, 0xa2, 0x73, 0x91, 0x3d,
  0x5d, 0xe0, 0x96, 0x3c, 0x07, 0xda, 0x1b, 0x3d, 0x5c, 0x22, 0xd5, 0xbd,
  0x54, 0xc9, 0x09, 0xbe, 0x78, 0x77, 0x1a, 0xbe, 0xf4, 0x1f, 0x47, 0xbe,
  0x5b, 0x6d, 0xaf, 0xbd, 0x23, 0xdd, 0x7b, 0x3c, 0xa4, 0x5f, 0x88, 0x3d,
  0x7b, 0x95, 0x55, 0xbd, 0x2b, 0x1b, 0xd5, 0xbd, 0xb0, 0x43, 0xc4, 0xbc,
  0xf2, 0x26, 0x27, 0xbe, 0x02, 0x80, 0x21, 0xbd, 0x7c, 0x9c, 0xbc, 0x3d,
  0x6a, 0x86, 0x26, 0x3d, 0xcd, 0xb3, 0xfe, 0xbc, 0xac, 0x27, 0x58, 0x3d,
  0x93, 0x7a, 0xaf, 0x3d, 0x06, 0x06, 0x33, 0xbd, 0x38, 0x29, 0xd8, 0x3c,
  0x5d, 0xe8, 0xb0, 0x3d, 0x09, 0x87, 0xe5, 0x3c, 0xa1, 0xa5, 0x22, 0xbd,
  0xcb, 0x73, 0x0a, 0x3d, 0x1f, 0x12, 0x00, 0xbe, 0xd7, 0x5a, 0x6a, 0xbd,
  0xcd, 0x9e, 0x1b, 0xbe, 0x82, 0x27, 0x09, 0xbe, 0xcc, 0x79, 0x86, 0xbd,
  0x30, 0x08, 0x83, 0xbd, 0x43, 0x81, 0xa3, 0xbd, 0x27, 0x8e, 0x5a, 0x3d,
  0x31, 0x3e, 0xab, 0xbd, 0x62, 0x31, 0x65, 0xbc, 0xe7, 0xd4, 0x51, 0xbc,
  0x96, 0x90, 0x5c, 0x3c, 0xf3, 0xb0, 0x9d, 0xbc, 0x65, 0x2e, 0x5d, 0x3d,
  0xc1, 0xec, 0xdc, 0x3d, 0x89, 0xe4, 0x13, 0x3e, 0xd7, 0xa2, 0x0f, 0x3e,
  0xa9, 0x51, 0x9c, 0xbd, 0x59, 0x97, 0x93, 0x3c, 0xce, 0x34, 0xdc, 0x3d,
  0xb4, 0x00, 0x7c, 0x3c, 0x46, 0x61, 0x1e, 0xbd, 0x89, 0x9a, 0x28, 0x3e,
  0x10, 0x9b, 0x82, 0x3d, 0x34, 0x97, 0xdb, 0x3c, 0x13, 0x48, 0x0f, 0xbe,
  0x56, 0x23, 0x17, 0xbd, 0x8b, 0xfb, 0x22, 0x3c, 0xcb, 0x41, 0x16, 0x3e,
  0x7f, 0x5e, 0xd7, 0xbd, 0x99, 0x01, 0x96, 0xbd, 0xfd, 0x7f, 0xc0, 0xbd,
  0x5c, 0x51, 0xa7, 0x3c, 0x48, 0x7d, 0x92, 0x3d, 0xd0, 0x7c, 0x18, 0xbe,
  0x89, 0x07, 0x5a, 0x3c, 0x26, 0xa6, 0xad, 0xbc, 0xb0, 0xd8, 0x97, 0x3c,
  0x6a, 0x0a, 0x0c, 0xbd, 0x89, 0x20, 0x3c, 0xbd, 0xd5, 0xaf, 0x96, 0x3d,
  0x68, 0xcb, 0xa0, 0xbd, 0x9e, 0x32, 0x8c, 0x3d, 0xf5, 0x94, 0x93, 0xbc,
  0x42, 0xe4, 0x64, 0xbd, 0x6a, 0x24, 0xde, 0xbd, 0x18, 0x93, 0xad, 0xbd,
  0x1a, 0x1e, 0x92, 0xbc, 0x52, 0x78, 0xc6, 0xbd, 0xf5, 0x30, 0xe8, 0xbd,
  0x2e, 0x6c, 0x92, 0x3d, 0xa2, 0xa0, 0xb0, 0x3d, 0x4a, 0x5b, 0x9e, 0x3d,
  0x31, 0x59, 0xd3, 0xbd, 0xa9, 0x5c, 0x35, 0x3e, 0x21, 0x44, 0xc2, 0xbc,
  0x4e, 0x85, 0x18, 0xbd, 0xa0, 0x31, 0x13, 0x3d, 0xf0, 0x2f, 0xa8, 0x3c,
  0x46, 0x66, 0xd2, 0xbd, 0x57, 0x86, 0xb3, 0xbd, 0x80, 0xee, 0x83, 0xbc,
  0xf4, 0xb5, 0xef, 0x3d, 0x05, 0x0c, 0x79, 0xbd, 0xe8, 0xdf, 0xec, 0x3d,
  0xb5, 0xac, 0xf7, 0x3d, 0x36, 0x63, 0x1e, 0x3e, 0x07, 0x7d, 0x11, 0x3d,
  0x24, 0xf2, 0xaf, 0x3d, 0xf0, 0x20, 0x01, 0x3d, 0xa9, 0x87, 0x35, 0xbd,
  0x79, 0xa5, 0xb2, 0x3d, 0x23, 0xe7, 0x53, 0xbd, 0xc4, 0xe3, 0xf3, 0xbd,
  0x1e, 0xc0, 0x88, 0x3d, 0x53, 0x19, 0x95, 0xbc, 0x5d, 0xbd, 0xd0, 0x3b,
  0xde, 0xa5, 0xb7, 0xbd, 0x11, 0x06, 0x49, 0xbd, 0x37, 0x6c, 0x88, 0xbb,
  0xd0, 0xf0, 0x89, 0x3d, 0x92, 0xc7, 0x66, 0xbd, 0x8d, 0x2a, 0xaf, 0xbd,
  0xe4, 0xeb, 0x1b, 0xbe, 0xe5, 0x7a, 0x2c, 0x3c, 0x64, 0x01, 0xb4, 0xbd,
  0xf6, 0x36, 0x30, 0x3d, 0x7f, 0x42, 0x11, 0xbe, 0xc0, 0x0e, 0x63, 0x3d,
  0x2d, 0x09, 0x91, 0x3d, 0x22, 0xe1, 0xef, 0xbd, 0x92, 0xbe, 0xfe, 0xbd,
  0x75, 0x82, 0x96, 0xbd, 0x2b, 0x2d, 0x8a, 0x3c, 0x7e, 0x0f, 0x66, 0x3d,
  0x12, 0x0d, 0xfd, 0xbd, 0x17, 0x33, 0xee, 0x3b, 0x54, 0xe5, 0x03, 0x3d,
  0x3b, 0xbb, 0xda, 0xbd, 0x6f, 0x1c, 0x9d, 0x3d, 0x84, 0xb0, 0xa2, 0xbb,
  0x9d, 0x2b, 0xd7, 0x3d, 0xae, 0x25, 0xa7, 0x3d, 0xc6, 0x07, 0xb6, 0xbd,
  0xbb, 0xd3, 0x85, 0x3d, 0x8c, 0xac, 0xaf, 0xbd, 0xb1, 0x1b, 0x74, 0xbc,
  0xf9, 0x6f, 0x95, 0x3d, 0x50, 0x0d, 0x7a, 0xbc, 0xf5, 0xaf, 0xc3, 0x3d,
  0xf1, 0x50, 0x95, 0x3c, 0x75, 0x9b, 0x03, 0x3b, 0x36, 0x59, 0xf1, 0xbd,
  0x2b, 0xcb, 0xd7, 0xbd, 0x5b, 0xb9, 0x30, 0xbd, 0xeb, 0xbf, 0xbf, 0xbd,
  0x43, 0xe2, 0x18, 0xbe, 0x0d, 0xe5, 0xc2, 0xbd, 0xe4, 0xfd, 0xad, 0x3d,
  0x9f, 0x43, 0x80, 0xbd, 0xaf, 0x3a, 0xe7, 0xbc, 0xdd, 0x52, 0xe8, 0x3b,
  0x32, 0xa9, 0x1d, 0x3d, 0x42, 0x6f, 0xcd, 0x3d, 0x50, 0xff, 0xd6, 0xbd,
  0xea, 0x5b, 0xa8, 0xbd, 0x15, 0xa8, 0x6d, 0xbd, 0x7a, 0xe6, 0xc5, 0x3c,
  0xa9, 0x54, 0xd2, 0xbd, 0x1a, 0x58, 0x0f, 0x3d, 0xa2, 0x2e, 0x0e, 0xbe,
  0xe7, 0xe5, 0xa4, 0x3d, 0xf4, 0x10, 0x11, 0xbe, 0x89, 0xc8, 0x9a, 0xbd,
  0xd5, 0x03, 0x8e, 0x3c, 0xa9, 0x66, 0xe3, 0xbd, 0xe2, 0x78, 0x07, 0xbe,
  0x6a, 0xb5, 0xe9, 0xbd, 0xee, 0x52, 0x5e, 0xbd, 0x1c, 0x45, 0x00, 0xbe,
  0x45, 0x77, 0x11, 0x3d, 0xed, 0xff, 0x19, 0xbd, 0x2a, 0xf0, 0xf6, 0xbd,
  0xb4, 0xb5, 0xdc, 0xbd, 0x48, 0xd8, 0x8f, 0xbd, 0x8f, 0x58, 0x0e, 0xbe,
  0xb1, 0x2a, 0xf4, 0xbd, 0x91, 0xfb, 0xc1, 0x3d, 0x71, 0x1a, 0xdf, 0x3d,
  0x0c, 0xa9, 0x89, 0x3d, 0x2e, 0xa3, 0xc1, 0xbb, 0x85, 0xc0, 0xcb, 0x3d,
  0x5e, 0x79, 0xaf, 0xbd, 0xc9, 0x17, 0xb8, 0x3d, 0x93, 0xb6, 0x19, 0x3d,
  0xb0, 0x1b, 0xba, 0x3c, 0xe1, 0x9c, 0xa2, 0x3d, 0xbe, 0x80, 0xca, 0xbd,
  0xce, 0xe2, 0x03, 0x3d, 0x64, 0x8e, 0x98, 0xbd, 0xa5, 0xe4, 0x89, 0x3d,
  0x37, 0x3d, 0x9e, 0x3c, 0x1d, 0x0b, 0xae, 0xbd, 0xa5, 0x26, 0xf4, 0xbd,
  0xe9, 0x49, 0x02, 0xbe, 0x60, 0x88, 0x2a, 0xbd, 0x3d, 0x99, 0xbd, 0xbd,
  0x47, 0x13, 0x8e, 0x3d, 0x91, 0xc5, 0xfb, 0xbd, 0xef, 0xe6, 0x0d, 0xbe,
  0x38, 0x31, 0xb5, 0xbc, 0xda, 0xbb, 0x36, 0x3c, 0x69, 0xdf, 0x70, 0xbd,
  0x5b, 0x77, 0xa0, 0x3d, 0x30, 0x67, 0x0d, 0xbe, 0xb2, 0xa6, 0xc9, 0x3c,
  0x0b, 0xf8, 0xff, 0xbd, 0x9c, 0xbb, 0xce, 0xbc, 0xf5, 0x18, 0x98, 0xbd,
  0x54, 0xd1, 0xea, 0xbd, 0xee, 0x85, 0xe0, 0xbc, 0x77, 0xf2, 0xb8, 0xbd,
  0x91, 0xd8, 0x48, 0x3d, 0x48, 0x63, 0xc9, 0xbd, 0x6a, 0x96, 0x7a, 0x3d,
  0x53, 0xaf, 0x82, 0xbd, 0x9b, 0x55, 0xee, 0xbd, 0xbb, 0x6b, 0x5c, 0xbd,
  0x16, 0xc7, 0xec, 0xbd, 0x82, 0x77, 0x44, 0x3d, 0xf8, 0x99, 0x06, 0x3d,
  0xea, 0xb6, 0xc4, 0xbd, 0xb6, 0xb3, 0x9d, 0xbd, 0xb0, 0x90, 0xe3, 0xbd,
  0x9a, 0xa2, 0xd5, 0xbd, 0x56, 0xa7, 0xa1, 0xbc, 0xf0, 0xcc, 0x3d, 0x3b,
  0x88, 0x17, 0x05, 0xbe, 0xa5, 0x3e, 0xd9, 0x3d, 0x25, 0x12, 0x9d, 0xbd,
  0x3d, 0x42, 0x0f, 0x3d, 0x47, 0xd0, 0x01, 0xbd, 0x99, 0xf9, 0x8e, 0xbd,
  0x22, 0x7d, 0x0f, 0xbe, 0xb4, 0xe1, 0x15, 0x3b, 0xff, 0xeb, 0x8c, 0x3d,
  0x0e, 0xfa, 0x86, 0xbd, 0x79, 0x38, 0xd6, 0xbd, 0x0f, 0xee, 0xff, 0xbd,
  0x2d, 0xd4, 0xd5, 0xbd, 0xd5, 0x2f, 0xf1, 0x3c, 0x40, 0x1f, 0x86, 0x3d,
  0xae, 0xa2, 0xc7, 0x3d, 0xdd, 0x9c, 0x28, 0x3d, 0x93, 0x76, 0xb6, 0x3d,
  0xb6, 0x9d, 0x04, 0xbc, 0x3f, 0x9e, 0xe6, 0xbb, 0x08, 0xa9, 0x96, 0x3d,
  0x84, 0x4a, 0x1e, 0x3d, 0x34, 0x7b, 0x86, 0x3d, 0xd4, 0x9f, 0x1b, 0xbe,
  0x59, 0x2c, 0x4e, 0x3d, 0xa1, 0x6a, 0x09, 0xbe, 0x76, 0xa5, 0xde, 0x3d,
  0xb3, 0x13, 0xc4, 0x3c, 0xbc, 0x68, 0xe5, 0xbd, 0xcf, 0x55, 0x30, 0xbd,
  0x79, 0xf6, 0xa1, 0x3d, 0x24, 0xe2, 0x12, 0xbb, 0xf2, 0x1f, 0xad, 0x3d,
  0xe4, 0xc2, 0xac, 0x3d, 0x04, 0x24, 0x40, 0x3c, 0xf8, 0x8b, 0x2b, 0xbd,
  0x31, 0x1b, 0x04, 0xbd, 0x89, 0xd9, 0x00, 0x3d, 0x1a, 0x0b, 0x08, 0x3d,
  0xe9, 0x64, 0xbf, 0xbd, 0xc3, 0x45, 0xa2, 0xbd, 0xb0, 0x6d, 0x4c, 0xbd,
  0x80, 0xf7, 0xbc, 0xbd, 0xde, 0xcd, 0xe2, 0xbd, 0xa5, 0x27, 0x3d, 0x3d,
  0xfc, 0x5c, 0xff, 0xbc, 0x76, 0x73, 0xa7, 0x3c, 0x9e, 0x09, 0xb1, 0x3d,
  0xb1, 0xf8, 0xf4, 0xbd, 0x60, 0x4f, 0x7c, 0x3c, 0x33, 0xd8, 0xca, 0xba,
  0xc7, 0xdd, 0xc6, 0x3c, 0x77, 0x50, 0x48, 0xbd, 0x5c, 0x80, 0x5c, 0x3d,
  0x48, 0xc6, 0xc5, 0xbd, 0xec, 0x59, 0xd3, 0xbd, 0xba, 0x11, 0x01, 0xbe,
  0x36, 0xaa, 0x1f, 0xbd, 0xaa, 0x72, 0x12, 0xbe, 0x31, 0x5d, 0xf1, 0xbc,
  0x1f, 0x70, 0x06, 0x3d, 0xb6, 0x03, 0xa4, 0x3d, 0xa2, 0x29, 0x10, 0xbd,
  0xef, 0x72, 0xdf, 0xbd, 0x9e, 0x2d, 0x0b, 0xbc, 0xa0, 0xa9, 0xb6, 0x3d,
  0x84, 0xc7, 0xc1, 0x3c, 0xa0, 0xa3, 0xdd, 0xbd, 0x97, 0x2a, 0xec, 0x3a,
  0x73, 0x8b, 0x24, 0xbd, 0x05, 0x36, 0x9c, 0x3d, 0x82, 0x8a, 0x88, 0x3d,
  0x85, 0x60, 0x3b, 0x3d, 0x4d, 0x37, 0x20, 0x3d, 0xe7, 0x2f, 0x17, 0x3d,
  0x9d, 0xc8, 0xd6, 0xbd, 0xea, 0x5e, 0x9e, 0xbd, 0x82, 0xb6, 0x93, 0x3d,
  0xf9, 0x82, 0x59, 0x3d, 0x8e, 0x89, 0x0f, 0xbe, 0xf7, 0x55, 0x54, 0x3c,
  0x46, 0x25, 0xa6, 0xbd, 0x87, 0x3f, 0x04, 0xbe, 0xe2, 0x12, 0x2f, 0x3d,
  0x84, 0x7b, 0xb7, 0x3d, 0xdb, 0x76, 0x87, 0x3d, 0xd3, 0xb6, 0x02, 0xbe,
  0xb7, 0x13, 0xac, 0xbd, 0x7f, 0xfc, 0xb2, 0x3d, 0x53, 0x6d, 0x2d, 0x3d,
  0x69, 0xde, 0xc6, 0x3c, 0x3b, 0x94, 0x9d, 0xbc, 0xb7, 0x1d, 0x3d, 0x3d,
  0xcb, 0x09, 0x38, 0x3d, 0x16, 0x27, 0xd5, 0xbd, 0x70, 0x07, 0x7b, 0xbd,
  0x4f, 0xcd, 0x98, 0x3d, 0x32, 0x62, 0x78, 0xbd, 0xea, 0x5a, 0xdf, 0xbd,
  0x7c, 0x36, 0x8f, 0x3c, 0xbd, 0x3e, 0x26, 0x3d, 0x41, 0xbc, 0xd3, 0xbd,
  0xa6, 0xaf, 0xc5, 0x3d, 0xeb, 0xb6, 0xa1, 0xbd, 0x67, 0xdc, 0xf4, 0x3c,
  0x31, 0x1f, 0xb8, 0xbd, 0x68, 0x8f, 0xf3, 0xbd, 0x71, 0x97, 0xb0, 0xbd,
  0xe9, 0xf7, 0xb9, 0xbc, 0xeb, 0x08, 0xc3, 0xbd, 0x90, 0x8e, 0xe6, 0xbd,
  0xaf, 0xe9, 0xc6, 0x3b, 0x70, 0xe2, 0x02, 0xbe, 0xba, 0x23, 0x9c, 0xbd,
  0xf9, 0xb8, 0xa0, 0x3d, 0x19, 0x99, 0x01, 0xbe, 0xd6, 0xba, 0x76, 0xbd,
  0x3c, 0x56, 0x95, 0xbd, 0x35, 0xbf, 0x1f, 0xbe, 0xb8, 0x64, 0x7f, 0x3d,
  0x24, 0x65, 0x2b, 0xbe, 0x78, 0x0a, 0xa0, 0xbd, 0xf7, 0x29, 0x41, 0x3d,
  0x8e, 0x5b, 0xcb, 0xbd, 0xe4, 0xf7, 0xe7, 0xbd, 0x53, 0xc5, 0x3d, 0xbd,
  0x6c, 0x45, 0x74, 0x3d, 0xc4, 0x1e, 0x4e, 0x3d, 0xe7, 0xd7, 0xd2, 0x3d,
  0xe2, 0x86, 0x9f, 0xbd, 0xf5, 0x37, 0x9e, 0xbd, 0xdd, 0x0c, 0x73, 0x3d,
  0x30, 0x1d, 0x5e, 0xbd, 0x31, 0x95, 0xd3, 0x3d, 0xf9, 0xd1, 0xea, 0xbc,
  0x34, 0x02, 0x8c, 0xbd, 0xb1, 0xc4, 0xbf, 0xbd, 0x49, 0xf0, 0xee, 0xbc,
  0x68, 0x04, 0xd9, 0xbc, 0x90, 0x55, 0x96, 0xbd, 0x18, 0xe2, 0x7f, 0xbd,
  0x43, 0xf6, 0xc6, 0xbc, 0xbc, 0x1a, 0x25, 0x3c, 0xb7, 0xe2, 0xa6, 0x3d,
  0x6c, 0x5d, 0xe3, 0x3c, 0x47, 0x18, 0xc3, 0x3d, 0x01, 0x9a, 0x2d, 0x3d,
  0x97, 0xc7, 0x79, 0x3d, 0x38, 0x15, 0x80, 0xbd, 0xf6, 0x6a, 0x52, 0xbd,
  0x37, 0x9e, 0x16, 0xb9, 0xd0, 0x00, 0xf2, 0xbd, 0x09, 0x3b, 0x75, 0xbd,
  0xc5, 0x00, 0xd3, 0x3d, 0x28, 0x9a, 0x40, 0x3d, 0xc3, 0xd8, 0xc9, 0xbc,
  0x17, 0x73, 0x92, 0x3d, 0x97, 0x4c, 0x1a, 0x3d, 0x42, 0x89, 0xd4, 0xbd,
  0x14, 0x38, 0x68, 0xbd, 0xfc, 0x72, 0x04, 0x3d, 0x9b, 0xda, 0x83, 0x3c,
  0x87, 0xfe, 0x73, 0xbd, 0xa9, 0xc3, 0xb2, 0xbd, 0x48, 0x27, 0xb9, 0xbd,
  0x98, 0xfe, 0xbf, 0xbc, 0xb4, 0xaf, 0xf0, 0xbd, 0xe7, 0x87, 0x90, 0xbd,
  0x85, 0x49, 0xd0, 0x3b, 0xbb, 0xac, 0x44, 0x3c, 0xfd, 0x9e, 0x84, 0x3c,
  0xdc, 0xc8, 0xc1, 0x3d, 0xd5, 0x16, 0x3b, 0xbd, 0x8e, 0x80, 0xf2, 0xbd,
  0x8d, 0x4d, 0xc5, 0xbd, 0x0f, 0x9e, 0x03, 0xbe, 0x25, 0x3c, 0xf1, 0xbd,
  0x68, 0xae, 0xf4, 0x3d, 0x3d, 0x65, 0x01, 0xbe, 0x9a, 0xcd, 0xf0, 0xbc,
  0x06, 0xd5, 0x61, 0xbd, 0x4a, 0xaa, 0x9b, 0x3d, 0x9e, 0xa0, 0x85, 0xbd,
  0x1e, 0xc9, 0x9e, 0xbc, 0xb1, 0xb2, 0xc7, 0xb9, 0xe9, 0x4a, 0x05, 0x3d,
  0x8c, 0xd5, 0xab, 0x3d, 0xe1, 0xa0, 0xbf, 0x3d, 0x7c, 0xe6, 0x8c, 0xbd,
  0xdd, 0xc3, 0x54, 0xbd, 0x44, 0x78, 0x0f, 0x3d, 0xcc, 0x19, 0x95, 0xbd,
  0xf2, 0xc5, 0x8b, 0x3d, 0xa3, 0x95, 0x6d, 0x3d, 0x4b, 0x45, 0x4b, 0x3d,
  0x1e, 0xa4, 0x1b, 0x3d, 0x7c, 0x1c, 0xc3, 0xbc, 0xfa, 0x36, 0x5c, 0xbd,
  0x2a, 0x9d, 0x39, 0x3d, 0x87, 0x42, 0x04, 0xbc, 0x25, 0x1b, 0x99, 0xbd,
  0x7f, 0xbe, 0xe3, 0xbd, 0xf4, 0x8a, 0xca, 0xbd, 0xb0, 0x49, 0x64, 0x3c,
  0x45, 0x6f, 0xe3, 0xbd, 0x90, 0x19, 0x57, 0xbd, 0x51, 0x6e, 0x77, 0xbd,
  0xa5, 0x9d, 0x5e, 0x3d, 0x00, 0x56, 0x0f, 0xbb, 0x34, 0xa8, 0x3b, 0xbd,
  0x24, 0x65, 0x72, 0x3c, 0x60, 0x78, 0x38, 0x3d, 0x75, 0x6c, 0x51, 0xbd,
  0x59, 0x2d, 0x77, 0xbd, 0x0c, 0xfd, 0x5c, 0x3d, 0xb9, 0xf7, 0x06, 0xbe,
  0x71, 0x57, 0x0a, 0x3c, 0xaa, 0x61, 0x4c, 0xbd, 0x74, 0x0d, 0x43, 0x3d,
  0xb9, 0xf4, 0xd0, 0x3d, 0x6a, 0x78, 0xd1, 0xbd, 0x61, 0xb4, 0xf8, 0xbd,
  0xc9, 0xb7, 0x73, 0xbd, 0x3b, 0x27, 0xc3, 0xbd, 0xaa, 0xab, 0xaa, 0xbd,
  0xd1, 0xaf, 0xd9, 0xbc, 0x70, 0xa4, 0x8c, 0x3d, 0x0d, 0xe9, 0x67, 0xbc,
  0xd7, 0xdc, 0x11, 0xbe, 0x0e, 0x47, 0x58, 0xbd, 0x04, 0x0e, 0xbb, 0xbd,
  0xe8, 0xd7, 0x6e, 0xbd, 0xa0, 0x74, 0x90, 0x3d, 0xe8, 0x75, 0x98, 0xbd,
  0x31, 0x65, 0x23, 0xbc, 0xfe, 0x3e, 0x87, 0xbd, 0x5a, 0xd1, 0xc2, 0x3b,
  0x0c, 0x15, 0xe1, 0xbd, 0x82, 0xd4, 0x49, 0xbd, 0x06, 0x5a, 0x9b, 0xbb,
  0xca, 0xfe, 0x19, 0xbc, 0x9c, 0x2d, 0x89, 0xbc, 0x3b, 0x15, 0x92, 0x3d,
  0x51, 0xd6, 0x3e, 0xbd, 0x6f, 0xb6, 0xa2, 0xbc, 0xa7, 0x0f, 0xe6, 0xbc,
  0x82, 0x41, 0x0e, 0xbe, 0xd9, 0x9b, 0x88, 0x3d, 0x5c, 0x9b, 0x32, 0xbd,
  0xe5, 0xb0, 0xb6, 0x3d, 0xe0, 0x3b, 0xac, 0x3d, 0xe4, 0x74, 0x12, 0xbd,
  0x8d, 0xd0, 0x04, 0xbe, 0x54, 0x16, 0x4f, 0xbb, 0x9d, 0xb4, 0xc7, 0xbd,
  0xa1, 0x40, 0x82, 0x3c, 0xce, 0x92, 0x21, 0xbd, 0xa1, 0xdc, 0x86, 0xbd,
  0x6c, 0x21, 0xdb, 0xbd, 0xe3, 0x5b, 0x92, 0xbc, 0x66, 0x65, 0xd5, 0xbd,
  0x55, 0x7a, 0xa0, 0xbc, 0xfe, 0x1a, 0xbe, 0xbd, 0x67, 0xb9, 0xe1, 0x3d,
  0x07, 0xde, 0x6f, 0x3d, 0x80, 0x64, 0xd9, 0x3c, 0x87, 0xff, 0x97, 0xbd,
  0x03, 0x59, 0x92, 0x3d, 0xfa, 0xb0, 0x5e, 0xbc, 0x27, 0x3b, 0xf1, 0xbd,
  0xbc, 0x6e, 0x99, 0x3d, 0xfe, 0x7f, 0xa7, 0x3d, 0xb2, 0xf7, 0x0b, 0xbd,
  0x09, 0x3f, 0x3c, 0x3d, 0x29, 0xc8, 0xba, 0xbd, 0xf6, 0x87, 0xb4, 0x3c,
  0xd7, 0x58, 0x2a, 0xbd, 0x61, 0x21, 0x59, 0x3c, 0x66, 0x95, 0xed, 0x3c,
  0x37, 0x64, 0xbc, 0xbc, 0xda, 0x87, 0xf4, 0xbd, 0x80, 0x68, 0x25, 0xbd,
  0x42, 0x2b, 0xe7, 0xbc, 0xb4, 0x69, 0xd9, 0xbd, 0x6a, 0x43, 0xc7, 0x3b,
  0x36, 0x43, 0x89, 0xbd, 0x27, 0x95, 0xaf, 0x3d, 0xc5, 0x71, 0xf2, 0xbd,
  0x4b, 0x01, 0xb8, 0x3d, 0xb0, 0x64, 0x3b, 0xbd, 0x1b, 0x1a, 0xd6, 0x3d,
  0x0b, 0xc4, 0x98, 0xbd, 0xd4, 0xa6, 0xdf, 0xbd, 0x6e, 0xcf, 0xe4, 0x3d,
  0x64, 0xc2, 0xdd, 0x3d, 0x58, 0x6f, 0x81, 0xbd, 0x3e, 0x23, 0x88, 0x3d,
  0x94, 0xac, 0x3a, 0x3d, 0x24, 0xe8, 0xd1, 0x3d, 0x89, 0x77, 0x1e, 0x3d,
  0x7f, 0x02, 0x12, 0xbe, 0x3c, 0x83, 0xa0, 0xbd, 0x4f, 0x7c, 0xf7, 0x3c,
  0x86, 0xd7, 0xda, 0xbc, 0x06, 0x1d, 0x37, 0xbd, 0x7f, 0x79, 0xbd, 0x3c,
  0x90, 0x4a, 0xc6, 0xbd, 0xf4, 0x10, 0x10, 0x3b, 0x2d, 0x61, 0xe7, 0xbd,
  0xd5, 0x00, 0xb1, 0xbd, 0x9b, 0x31, 0x2e, 0xbd, 0x99, 0xfe, 0x89, 0x3d,
  0xf3, 0x1c, 0x82, 0x3c, 0xd8, 0x73, 0xe9, 0xbd, 0x7c, 0x83, 0xc2, 0x3d,
  0xd3, 0x96, 0x16, 0xbd, 0x04, 0xaa, 0xd1, 0xbd, 0xe9, 0x44, 0x37, 0xbd,
  0x5a, 0x90, 0xa7, 0xbd, 0x80, 0x8c, 0x34, 0x3d, 0xf4, 0x84, 0xf7, 0xbd,
  0x55, 0x91, 0xe0, 0xbd, 0xb2, 0xba, 0xac, 0xbd, 0x18, 0x9a, 0x2c, 0x3b,
  0xeb, 0x25, 0xbe, 0xbd, 0x2d, 0xee, 0xb4, 0xbd, 0x10, 0x9e, 0x92, 0xbd,
  0xe6, 0x0a, 0x87, 0xbc, 0x63, 0x40, 0x2d, 0xbd, 0x83, 0x30, 0x37, 0x3d,
  0xd5, 0xb0, 0x65, 0x3c, 0x20, 0xcc, 0x95, 0x3d, 0x3f, 0x84, 0x7e, 0x3b,
  0xa7, 0x90, 0x92, 0x3d, 0xeb, 0x6f, 0x04, 0xbe, 0x2b, 0x55, 0x96, 0xbd,
  0xe4, 0xfb, 0x09, 0x3d, 0x16, 0xcf, 0x8e, 0xbd, 0x3a, 0xe4, 0x07, 0xbe,
  0xd4, 0x00, 0x9d, 0xbd, 0xdb, 0xf7, 0x31, 0x3d, 0xf9, 0xe7, 0x04, 0xbe,
  0xe9, 0x55, 0x39, 0xbd, 0x14, 0x07, 0x9c, 0xbc, 0x3c, 0x06, 0x61, 0xbd,
  0xc9, 0x51, 0x5b, 0xbd, 0x89, 0xcc, 0xf6, 0xbd, 0x6e, 0x43, 0x39, 0x3d,
  0x80, 0xad, 0x21, 0xbd, 0x51, 0xdb, 0x68, 0xbd, 0x71, 0xb4, 0x0b, 0xbd,
  0x25, 0x2b, 0x0b, 0xbe, 0x98, 0x19, 0x36, 0x3d, 0xf7, 0x38, 0x5e, 0xbd,
  0x03, 0xde, 0x3a, 0xbd, 0x82, 0xe8, 0xfe, 0xbd, 0xe0, 0xbb, 0xed, 0xbd,
  0xf1, 0x13, 0x71, 0xbd, 0x65, 0x90, 0x87, 0xbd, 0xd9, 0x55, 0xfe, 0xb9,
  0x9c, 0xf4, 0x9b, 0x3d, 0xf5, 0x27, 0x9b, 0xbd, 0x3a, 0x84, 0xea, 0xbd,
  0x1b, 0xce, 0xc7, 0x3d, 0xa6, 0x0f, 0xa4, 0xbd, 0x2d, 0xc3, 0xbf, 0xbc,
  0xb4, 0xe5, 0x48, 0xbd, 0xa1, 0x75, 0x80, 0xbd, 0xa6, 0xe2, 0xdb, 0xbc,
  0x3b, 0x30, 0x01, 0xbe, 0x91, 0x07, 0x8b, 0x3b, 0xd8, 0xb1, 0x6d, 0xbd,
  0x85, 0x13, 0xb8, 0xbd, 0x2d, 0xc4, 0xeb, 0xbd, 0xec, 0x62, 0xc6, 0xbd,
  0x5a, 0xd7, 0x25, 0x3d, 0x6d, 0x34, 0x48, 0xbd, 0xfc, 0xc4, 0x3b, 0x3d,
  0x8a, 0xc0, 0x5b, 0x3c, 0xdc, 0x58, 0xbd, 0x3b, 0x25, 0xcc, 0x55, 0xbc,
  0x1a, 0xfe, 0x17, 0xbe, 0x32, 0x4d, 0xcc, 0xbc, 0x5d, 0xfc, 0x42, 0xbd,
  0x45, 0xdd, 0x83, 0xbd, 0x60, 0x82, 0x76, 0x3d, 0xe3, 0x55, 0x03, 0x3c,
  0x45, 0x7d, 0x93, 0x3c, 0x4c, 0x66, 0xba, 0xbd, 0x95, 0x6b, 0x5b, 0xbd,
  0xe2, 0x7c, 0x59, 0x3d, 0x5a, 0xcf, 0x64, 0xbb, 0xc9, 0x35, 0xb9, 0xbb,
  0xdb, 0x5b, 0xd1, 0xbd, 0xaf, 0xf0, 0xa7, 0x3d, 0x42, 0xe8, 0x8f, 0x3d,
  0x5e, 0x0d, 0x02, 0xbe, 0x46, 0x06, 0x1f, 0xbe, 0x4f, 0x84, 0xe1, 0xbd,
  0xac, 0xc2, 0x90, 0xbd, 0x8c, 0x47, 0xb7, 0xbc, 0x26, 0x73, 0xeb, 0xbd,
  0x30, 0x92, 0x00, 0x3d, 0x4b, 0xc1, 0x42, 0xbd, 0x48, 0xed, 0x67, 0xbd,
  0x40, 0xe0, 0xa3, 0xbd, 0xa0, 0x4a, 0x83, 0x3d, 0x5d, 0x88, 0x23, 0x3d,
  0x10, 0xa8, 0x38, 0x3d, 0x4b, 0x0e, 0x80, 0xbd, 0x5d, 0xf8, 0x17, 0x3c,
  0x60, 0xed, 0x44, 0x3c, 0x21, 0x43, 0x96, 0x3d, 0x02, 0x0f, 0xb5, 0x3c,
  0xc8, 0x9e, 0x14, 0xbe, 0x1a, 0x56, 0xca, 0xbd, 0xd2, 0x7e, 0x51, 0xbd,
  0x80, 0x50, 0x01, 0xbc, 0xb9, 0x4b, 0xea, 0xbc, 0xa9, 0x4e, 0x9f, 0x3d,
